{
  "version": "1.0",
  "truncation": null,
  "padding": null,
  "added_tokens": [
    {
      "id": 0,
      "content": "<|endoftext|>",
      "single_word": false,
      "lstrip": false,
      "rstrip": false,
      "normalized": false,
      "special": true
    },
    {
      "id": 1,
      "content": "<|unk|>",
      "single_word": false,
      "lstrip": false,
      "rstrip": false,
      "normalized": false,
      "special": true
    },
    {
      "id": 2,
      "content": "<|pad|>",
      "single_word": false,
      "lstrip": false,
      "rstrip": false,
      "normalized": false,
      "special": true
    },
    {
      "id": 3,
      "content": "<|fim_prefix|>",
      "single_word": false,
      "lstrip": false,
      "rstrip": false,
      "normalized": false,
      "special": true
    },
    {
      "id": 4,
      "content": "<|fim_middle|>",
      "single_word": false,
      "lstrip": false,
      "rstrip": false,
      "normalized": false,
      "special": true
    },
    {
      "id": 5,
      "content": "<|fim_suffix|>",
      "single_word": false,
      "lstrip": false,
      "rstrip": false,
      "normalized": false,
      "special": true
    }
  ],
  "normalizer": null,
  "pre_tokenizer": {
    "type": "ByteLevel",
    "add_prefix_space": false,
    "trim_offsets": true,
    "use_regex": true
  },
  "post_processor": {
    "type": "ByteLevel",
    "add_prefix_space": true,
    "trim_offsets": false,
    "use_regex": true
  },
  "decoder": {
    "type": "ByteLevel",
    "add_prefix_space": true,
    "trim_offsets": true,
    "use_regex": true
  },
  "model": {
    "type": "BPE",
    "dropout": null,
    "unk_token": "<|unk|>",
    "continuing_subword_prefix": null,
    "end_of_word_suffix": null,
    "fuse_unk": false,
    "byte_fallback": false,
    "ignore_merges": false,
    "vocab": {
      "<|endoftext|>": 0,
      "<|unk|>": 1,
      "<|pad|>": 2,
      "<|fim_prefix|>": 3,
      "<|fim_middle|>": 4,
      "<|fim_suffix|>": 5,
      "!": 6,
      "\"": 7,
      "#": 8,
      "$": 9,
      "%": 10,
      "&": 11,
      "'": 12,
      "(": 13,
      ")": 14,
      "*": 15,
      "+": 16,
      ",": 17,
      "-": 18,
      ".": 19,
      "/": 20,
      "0": 21,
      "1": 22,
      "2": 23,
      "3": 24,
      "4": 25,
      "5": 26,
      "6": 27,
      "7": 28,
      "8": 29,
      "9": 30,
      ":": 31,
      ";": 32,
      "<": 33,
      "=": 34,
      ">": 35,
      "?": 36,
      "@": 37,
      "A": 38,
      "B": 39,
      "C": 40,
      "D": 41,
      "E": 42,
      "F": 43,
      "G": 44,
      "H": 45,
      "I": 46,
      "J": 47,
      "K": 48,
      "L": 49,
      "M": 50,
      "N": 51,
      "O": 52,
      "P": 53,
      "Q": 54,
      "R": 55,
      "S": 56,
      "T": 57,
      "U": 58,
      "V": 59,
      "W": 60,
      "X": 61,
      "Y": 62,
      "Z": 63,
      "[": 64,
      "\\": 65,
      "]": 66,
      "^": 67,
      "_": 68,
      "`": 69,
      "a": 70,
      "b": 71,
      "c": 72,
      "d": 73,
      "e": 74,
      "f": 75,
      "g": 76,
      "h": 77,
      "i": 78,
      "j": 79,
      "k": 80,
      "l": 81,
      "m": 82,
      "n": 83,
      "o": 84,
      "p": 85,
      "q": 86,
      "r": 87,
      "s": 88,
      "t": 89,
      "u": 90,
      "v": 91,
      "w": 92,
      "x": 93,
      "y": 94,
      "z": 95,
      "{": 96,
      "|": 97,
      "}": 98,
      "~": 99,
      "¡": 100,
      "¢": 101,
      "£": 102,
      "¤": 103,
      "¥": 104,
      "¦": 105,
      "§": 106,
      "¨": 107,
      "©": 108,
      "ª": 109,
      "«": 110,
      "¬": 111,
      "®": 112,
      "¯": 113,
      "°": 114,
      "±": 115,
      "²": 116,
      "³": 117,
      "´": 118,
      "µ": 119,
      "¶": 120,
      "·": 121,
      "¸": 122,
      "¹": 123,
      "º": 124,
      "»": 125,
      "¼": 126,
      "½": 127,
      "¾": 128,
      "¿": 129,
      "À": 130,
      "Á": 131,
      "Â": 132,
      "Ã": 133,
      "Ä": 134,
      "Å": 135,
      "Æ": 136,
      "Ç": 137,
      "È": 138,
      "É": 139,
      "Ê": 140,
      "Ë": 141,
      "Ì": 142,
      "Í": 143,
      "Î": 144,
      "Ï": 145,
      "Ð": 146,
      "Ñ": 147,
      "Ò": 148,
      "Ó": 149,
      "Ô": 150,
      "Õ": 151,
      "Ö": 152,
      "×": 153,
      "Ø": 154,
      "Ù": 155,
      "Ú": 156,
      "Û": 157,
      "Ü": 158,
      "Ý": 159,
      "Þ": 160,
      "ß": 161,
      "à": 162,
      "á": 163,
      "â": 164,
      "ã": 165,
      "ä": 166,
      "å": 167,
      "æ": 168,
      "ç": 169,
      "è": 170,
      "é": 171,
      "ê": 172,
      "ë": 173,
      "ì": 174,
      "í": 175,
      "î": 176,
      "ï": 177,
      "ð": 178,
      "ñ": 179,
      "ò": 180,
      "ó": 181,
      "ô": 182,
      "õ": 183,
      "ö": 184,
      "÷": 185,
      "ø": 186,
      "ù": 187,
      "ú": 188,
      "û": 189,
      "ü": 190,
      "ý": 191,
      "þ": 192,
      "ÿ": 193,
      "Ā": 194,
      "ā": 195,
      "Ă": 196,
      "ă": 197,
      "Ą": 198,
      "ą": 199,
      "Ć": 200,
      "ć": 201,
      "Ĉ": 202,
      "ĉ": 203,
      "Ċ": 204,
      "ċ": 205,
      "Č": 206,
      "č": 207,
      "Ď": 208,
      "ď": 209,
      "Đ": 210,
      "đ": 211,
      "Ē": 212,
      "ē": 213,
      "Ĕ": 214,
      "ĕ": 215,
      "Ė": 216,
      "ė": 217,
      "Ę": 218,
      "ę": 219,
      "Ě": 220,
      "ě": 221,
      "Ĝ": 222,
      "ĝ": 223,
      "Ğ": 224,
      "ğ": 225,
      "Ġ": 226,
      "ġ": 227,
      "Ģ": 228,
      "ģ": 229,
      "Ĥ": 230,
      "ĥ": 231,
      "Ħ": 232,
      "ħ": 233,
      "Ĩ": 234,
      "ĩ": 235,
      "Ī": 236,
      "ī": 237,
      "Ĭ": 238,
      "ĭ": 239,
      "Į": 240,
      "į": 241,
      "İ": 242,
      "ı": 243,
      "Ĳ": 244,
      "ĳ": 245,
      "Ĵ": 246,
      "ĵ": 247,
      "Ķ": 248,
      "ķ": 249,
      "ĸ": 250,
      "Ĺ": 251,
      "ĺ": 252,
      "Ļ": 253,
      "ļ": 254,
      "Ľ": 255,
      "ľ": 256,
      "Ŀ": 257,
      "ŀ": 258,
      "Ł": 259,
      "ł": 260,
      "Ń": 261,
      "ĠĠ": 262,
      "in": 263,
      "ĠĠĠĠ": 264,
      "th": 265,
      "Ġa": 266,
      "re": 267,
      "ĠĠĠ": 268,
      "on": 269,
      "te": 270,
      "or": 271,
      "st": 272,
      "Ġ=": 273,
      "er": 274,
      "en": 275,
      "Ġth": 276,
      "``": 277,
      "Ġc": 278,
      "Ġs": 279,
      "de": 280,
      "Ġf": 281,
      "Ġi": 282,
      ")\\": 283,
      "Ġthe": 284,
      "ra": 285,
      "Ġt": 286,
      "le": 287,
      "Ġin": 288,
      "Ġp": 289,
      "at": 290,
      ":\\": 291,
      "ĠĠĠĠĠĠĠ": 292,
      "ing": 293,
      "Ġre": 294,
      "Ġ\\": 295,
      "um": 296,
      "Ġn": 297,
      "li": 298,
      "ar": 299,
      "se": 300,
      "yth": 301,
      "ro": 302,
      "ython": 303,
      "ti": 304,
      "ur": 305,
      "al": 306,
      "me": 307,
      "nd": 308,
      "Ġo": 309,
      "```": 310,
      "Ġto": 311,
      "ge": 312,
      "mp": 313,
      "ate": 314,
      "Ġw": 315,
      "ri": 316,
      "int": 317,
      "Ġm": 318,
      "Ġe": 319,
      "Ġd": 320,
      "Ġ'": 321,
      "):\\": 322,
      "str": 323,
      "ĠP": 324,
      "urn": 325,
      "ut": 326,
      "turn": 327,
      "ce": 328,
      "Ġreturn": 329,
      "lo": 330,
      "list": 331,
      "ss": 332,
      "rint": 333,
      "ort": 334,
      "Ġof": 335,
      "Ġfor": 336,
      "un": 337,
      "def": 338,
      "Ġb": 339,
      "Ġ1": 340,
      "ode": 341,
      "Ġ\"": 342,
      "an": 343,
      "tion": 344,
      "ent": 345,
      "ct": 346,
      "ĠPython": 347,
      "ul": 348,
      "el": 349,
      "Ġnum": 350,
      ".\\": 351,
      "ue": 352,
      "la": 353,
      "Ġand": 354,
      "string": 355,
      "mport": 356,
      "ĠĠĠĠĠĠĠĠĠĠĠ": 357,
      "python": 358,
      "ber": 359,
      "Ġ[": 360,
      "ord": 361,
      "ch": 362,
      "ata": 363,
      "]\\": 364,
      "Ġif": 365,
      "om": 366,
      "Ġg": 367,
      "ter": 368,
      "ni": 369,
      "ction": 370,
      "ndef": 371,
      "ame": 372,
      "',": 373,
      "np": 374,
      "he": 375,
      "it": 376,
      "Ġis": 377,
      "ion": 378,
      "Ġ#": 379,
      "Ġl": 380,
      "iv": 381,
      "us": 382,
      "ke": 383,
      "Ġra": 384,
      "Ġ+": 385,
      "Ġlist": 386,
      "Ġpro": 387,
      "Ġ2": 388,
      "reate": 389,
      "is": 390,
      "xt": 391,
      "ver": 392,
      "Ġ0": 393,
      "ment": 394,
      "Ġnumber": 395,
      "rom": 396,
      "('": 397,
      "Ġar": 398,
      "di": 399,
      "ma": 400,
      "ad": 401,
      "put": 402,
      "pp": 403,
      "ol": 404,
      "Ġprint": 405,
      "Ġan": 406,
      "gra": 407,
      "Ġstring": 408,
      "ve": 409,
      "num": 410,
      "et": 411,
      "Ġy": 412,
      "nimport": 413,
      "nprint": 414,
      "il": 415,
      "Ġ(": 416,
      "ith": 417,
      "nf": 418,
      "ou": 419,
      "Ġv": 420,
      "Ġ{": 421,
      "__": 422,
      "gram": 423,
      "ĠT": 424,
      "ot": 425,
      "ĠC": 426,
      "es": 427,
      "ck": 428,
      "end": 429,
      "Ġthat": 430,
      "age": 431,
      "qu": 432,
      "ĠĠĠĠĠĠĠĠ": 433,
      "ation": 434,
      "Ġdata": 435,
      "Ġsel": 436,
      "unction": 437,
      "res": 438,
      "Ġself": 439,
      "ha": 440,
      "Ġcode": 441,
      "Ġ3": 442,
      "ind": 443,
      "ult": 444,
      "\",": 445,
      "rite": 446,
      "ile": 447,
      "ht": 448,
      "Ġma": 449,
      "()\\": 450,
      "lement": 451,
      "iven": 452,
      "Ġprogram": 453,
      "nge": 454,
      "Ġ<": 455,
      "Ġas": 456,
      "Ġ==": 457,
      "ray": 458,
      "co": 459,
      "ĠI": 460,
      "name": 461,
      "word": 462,
      "Ġco": 463,
      "get": 464,
      "')\\": 465,
      "Ġcon": 466,
      "ig": 467,
      "Ġal": 468,
      "text": 469,
      "(\"": 470,
      "alue": 471,
      "Ġfunction": 472,
      "ĠS": 473,
      "Ġrange": 474,
      "Ġgiven": 475,
      "ow": 476,
      "ec": 477,
      "lass": 478,
      "Ġus": 479,
      "lf": 480,
      "Create": 481,
      "Ġres": 482,
      "ĠF": 483,
      "Ġimport": 484,
      "\"\\": 485,
      "ble": 486,
      "ten": 487,
      "ted": 488,
      "tem": 489,
      "))\\": 490,
      "Ġdef": 491,
      "Ġ-": 492,
      "unt": 493,
      "ine": 494,
      "as": 495,
      "Ġst": 496,
      "self": 497,
      "ub": 498,
      "odel": 499,
      "Ġ5": 500,
      "Write": 501,
      "que": 502,
      "to": 503,
      "pa": 504,
      "Ġwith": 505,
      "id": 506,
      "ĠA": 507,
      "ener": 508,
      "ir": 509,
      "Ġword": 510,
      "ze": 511,
      "Ġlen": 512,
      "ns": 513,
      "nc": 514,
      "00": 515,
      "ic": 516,
      "Ġex": 517,
      "arr": 518,
      "Ġfrom": 519,
      "ndom": 520,
      "if": 521,
      "mple": 522,
      "Ġme": 523,
      "low": 524,
      "app": 525,
      "Ġu": 526,
      "Ġde": 527,
      "Ġpa": 528,
      "ew": 529,
      "Ġnumbers": 530,
      "Ġ4": 531,
      "':": 532,
      "data": 533,
      "key": 534,
      "--": 535,
      "Ġx": 536,
      "):": 537,
      "enerate": 538,
      "od": 539,
      "pt": 540,
      ";\\": 541,
      "ase": 542,
      "()": 543,
      "],": 544,
      "nfrom": 545,
      "Ġj": 546,
      "si": 547,
      "op": 548,
      "ers": 549,
      "Ġit": 550,
      ">\\": 551,
      "ta": 552,
      "Ġarray": 553,
      "ren": 554,
      "pe": 555,
      "Ġelement": 556,
      "len": 557,
      "Ġresult": 558,
      "ary": 559,
      "Ġmax": 560,
      "'\\": 561,
      "Ġarr": 562,
      "Ġwh": 563,
      "quest": 564,
      "['": 565,
      "test": 566,
      "ed": 567,
      "one": 568,
      "}\\": 569,
      "ample": 570,
      "Ġusing": 571,
      "Ġta": 572,
      "pli": 573,
      "utput": 574,
      "all": 575,
      "Ġdi": 576,
      "//": 577,
      "ci": 578,
      "for": 579,
      "ĠN": 580,
      "Ġvalue": 581,
      "Ġinput": 582,
      "Ġsum": 583,
      "Ġtw": 584,
      "rain": 585,
      "Ġel": 586,
      "rac": 587,
      "ex": 588,
      "number": 589,
      "Ġ+=": 590,
      "Ġse": 591,
      "ect": 592,
      "Ġelse": 593,
      "mo": 594,
      "Ġh": 595,
      "ĠD": 596,
      "gth": 597,
      "Ġbe": 598,
      "])\\": 599,
      "==": 600,
      "Ġ`": 601,
      "Ġ*": 602,
      "ry": 603,
      "Ġrandom": 604,
      "ĠĠĠĠĠĠĠĠĠĠĠĠĠĠĠ": 605,
      "cri": 606,
      "Ġall": 607,
      "Ġname": 608,
      "Ġ10": 609,
      "Ġwe": 610,
      "Ġnot": 611,
      "Ġle": 612,
      "com": 613,
      "Ġlo": 614,
      "Ġtwo": 615,
      "art": 616,
      "ute": 617,
      "row": 618,
      "Ġfind": 619,
      "dd": 620,
      "Ġch": 621,
      "Ġclass": 622,
      "alc": 623,
      "form": 624,
      "py": 625,
      "ĠL": 626,
      "append": 627,
      "ĠB": 628,
      "url": 629,
      "ali": 630,
      "Ġor": 631,
      "Ġ>": 632,
      "rue": 633,
      "Ġha": 634,
      "ĠR": 635,
      "Ġon": 636,
      "alcul": 637,
      "##": 638,
      "\")\\": 639,
      "ys": 640,
      "Ġcan": 641,
      "Ġrequest": 642,
      "dict": 643,
      "ters": 644,
      "ist": 645,
      "ty": 646,
      "ĠE": 647,
      "))": 648,
      "dex": 649,
      "our": 650,
      "vi": 651,
      "ĠM": 652,
      "Ġare": 653,
      "ces": 654,
      "Ġ{\\": 655,
      "Ġyou": 656,
      "im": 657,
      "model": 658,
      "cess": 659,
      "ser": 660,
      "pon": 661,
      "ac": 662,
      "ctor": 663,
      "Ġget": 664,
      "Ġop": 665,
      "nfor": 666,
      "Ġ__": 667,
      "enten": 668,
      "cript": 669,
      "tr": 670,
      "set": 671,
      "ly": 672,
      "time": 673,
      "\":": 674,
      "Ġtext": 675,
      "Ġuse": 676,
      "\\_": 677,
      "Ġ6": 678,
      "Ġ8": 679,
      "Ġcount": 680,
      "Ġnew": 681,
      "Ġmodel": 682,
      "alculate": 683,
      "ĠO": 684,
      "con": 685,
      "Ġ%": 686,
      "ĠĠĠĠĠ": 687,
      "</": 688,
      "red": 689,
      "son": 690,
      "Ġpo": 691,
      "ne": 692,
      "heck": 693,
      "Ġstr": 694,
      "ress": 695,
      "rent": 696,
      "gest": 697,
      "oup": 698,
      "ach": 699,
      "Ġwords": 700,
      "ps": 701,
      "enti": 702,
      "uct": 703,
      "ml": 704,
      "lay": 705,
      "plit": 706,
      "rime": 707,
      "entence": 708,
      "Ġkey": 709,
      "his": 710,
      "ize": 711,
      "we": 712,
      "arn": 713,
      "ure": 714,
      "po": 715,
      "words": 716,
      "ore": 717,
      ",\\": 718,
      "Ġfile": 719,
      "Ġset": 720,
      "Ġcur": 721,
      "result": 722,
      "value": 723,
      "au": 724,
      "ponse": 725,
      "gor": 726,
      "Ġcom": 727,
      "ject": 728,
      "Ġtake": 729,
      "oc": 730,
      "Ġitem": 731,
      "arch": 732,
      "ĠH": 733,
      "orted": 734,
      "Ġnp": 735,
      "Ġthis": 736,
      "Ġen": 737,
      "Ġgenerate": 738,
      "ello": 739,
      "input": 740,
      "Ġne": 741,
      "Ġ[]\\": 742,
      "lib": 743,
      "='": 744,
      "item": 745,
      "Ġsh": 746,
      "ĠW": 747,
      "pro": 748,
      "ib": 749,
      "alse": 750,
      "ang": 751,
      "mail": 752,
      "')": 753,
      "ime": 754,
      "Ġcol": 755,
      "quen": 756,
      "harac": 757,
      "date": 758,
      "verse": 759,
      "Generate": 760,
      "Ġby": 761,
      "teg": 762,
      "irst": 763,
      "']": 764,
      "Ġsub": 765,
      "array": 766,
      "htt": 767,
      "Ġrequests": 768,
      "numbers": 769,
      "count": 770,
      "ssword": 771,
      "Ġint": 772,
      "Ġcharac": 773,
      "ance": 774,
      "Ġ7": 775,
      "train": 776,
      "mage": 777,
      "Ġcreate": 778,
      "ill": 779,
      "----": 780,
      "ap": 781,
      "Ġfol": 782,
      "mat": 783,
      "up": 784,
      "Ġpython": 785,
      "lt": 786,
      "ree": 787,
      "oo": 788,
      "html": 789,
      "Ġscript": 790,
      "ĠThe": 791,
      "Ġweb": 792,
      "=\"": 793,
      "Ġadd": 794,
      "ther": 795,
      "Ġcalculate": 796,
      "Ġelements": 797,
      "Ġapp": 798,
      "nclass": 799,
      "Ġmat": 800,
      "ror": 801,
      "ip": 802,
      "Ġtakes": 803,
      "'s": 804,
      "sum": 805,
      "Ġcomp": 806,
      "Ġr": 807,
      "ctionary": 808,
      "uld": 809,
      "Ġpre": 810,
      "][": 811,
      "://": 812,
      "sh": 813,
      "():\\": 814,
      "Ġcheck": 815,
      "ĠU": 816,
      "my": 817,
      "move": 818,
      "The": 819,
      "head": 820,
      "Ġfollow": 821,
      "ld": 822,
      "ay": 823,
      "ft": 824,
      "bel": 825,
      "mon": 826,
      "add": 827,
      "ity": 828,
      "Ġuser": 829,
      "able": 830,
      "ĠG": 831,
      "([": 832,
      "ust": 833,
      "ĠTrue": 834,
      "Ġac": 835,
      "Ġ9": 836,
      "nif": 837,
      "zer": 838,
      "10": 839,
      "ithm": 840,
      "temp": 841,
      "Ġinteg": 842,
      "thod": 843,
      "Ġk": 844,
      "\"\"\\": 845,
      "gorithm": 846,
      "read": 847,
      "root": 848,
      "Ġtime": 849,
      "Ġmin": 850,
      "file": 851,
      "cs": 852,
      "ive": 853,
      "split": 854,
      "lic": 855,
      "Ġeach": 856,
      "ard": 857,
      "cur": 858,
      "ĠJ": 859,
      "ost": 860,
      "Ġqu": 861,
      "),": 862,
      "rame": 863,
      "Ġoutput": 864,
      "ari": 865,
      "fe": 866,
      "__(": 867,
      "ĠĠĠĠĠĠĠĠĠĠĠĠĠĠĠĠ": 868,
      "out": 869,
      "are": 870,
      "Ġstrings": 871,
      "ĠFalse": 872,
      "ign": 873,
      "init": 874,
      "val": 875,
      "bject": 876,
      "ks": 877,
      "orld": 878,
      "length": 879,
      "Ġalgorithm": 880,
      "ght": 881,
      "ould": 882,
      "Ġfollowing": 883,
      "ful": 884,
      "ssage": 885,
      "Ġla": 886,
      "vert": 887,
      "ibon": 888,
      "Ġwhi": 889,
      "acci": 890,
      "ibonacci": 891,
      "Ġsort": 892,
      "tle": 893,
      "ix": 894,
      "lif": 895,
      "example": 896,
      "path": 897,
      "Ġinto": 898,
      "rix": 899,
      "tain": 900,
      "ken": 901,
      "?\\": 902,
      "Ġchar": 903,
      "Ġmethod": 904,
      "ug": 905,
      "Ġdate": 906,
      "']\\": 907,
      "Hello": 908,
      "tal": 909,
      "ack": 910,
      "Ġfirst": 911,
      "Ġpd": 912,
      "ument": 913,
      "pla": 914,
      "Ġdictionary": 915,
      "tring": 916,
      "pec": 917,
      "nmodel": 918,
      "Ġsk": 919,
      "learn": 920,
      "Ġmy": 921,
      "cate": 922,
      "Ġreturns": 923,
      "am": 924,
      "tent": 925,
      "Ġlength": 926,
      "ĠOutput": 927,
      "Ġtotal": 928,
      "====": 929,
      "Ġwill": 930,
      "Ġend": 931,
      "This": 932,
      "Ġwhich": 933,
      "```\\": 934,
      "ĠNone": 935,
      "ww": 936,
      "Ġwhile": 937,
      "Ġ}\\": 938,
      "per": 939,
      "xec": 940,
      "right": 941,
      "In": 942,
      "lot": 943,
      "ĠCreate": 944,
      "Ġelif": 945,
      "ight": 946,
      "Ġrow": 947,
      "Ġun": 948,
      "title": 949,
      "Ġsentence": 950,
      "find": 951,
      "ĠRe": 952,
      "av": 953,
      "Ġcurrent": 954,
      "ud": 955,
      "ifi": 956,
      "duct": 957,
      "index": 958,
      "sk": 959,
      "rice": 960,
      "ded": 961,
      "ations": 962,
      "Ġat": 963,
      "Ġ/": 964,
      "Ġsklearn": 965,
      "code": 966,
      "tri": 967,
      "Ġprime": 968,
      "####": 969,
      "Ġout": 970,
      "max": 971,
      "eve": 972,
      "Ġper": 973,
      "https": 974,
      "Ġsorted": 975,
      "min": 976,
      "imum": 977,
      "order": 978,
      "ulti": 979,
      "ph": 980,
      "main": 981,
      "let": 982,
      "ial": 983,
      "Ġ['": 984,
      "Ġjson": 985,
      "ven": 986,
      "tim": 987,
      "ery": 988,
      "\")": 989,
      "Ġfa": 990,
      "Ġreverse": 991,
      "sion": 992,
      "rate": 993,
      "ongest": 994,
      "ator": 995,
      "mplement": 996,
      "ff": 997,
      "Ġdo": 998,
      "gs": 999,
      "Ġcontain": 1000,
      "Ġup": 1001,
      "rans": 1002,
      "Ġbet": 1003,
      "nums": 1004,
      "core": 1005,
      "ression": 1006,
      "td": 1007,
      "char": 1008,
      "les": 1009,
      "Re": 1010,
      "ract": 1011,
      "Ġremove": 1012,
      "auti": 1013,
      "pre": 1014,
      "autiful": 1015,
      "base": 1016,
      "ĠBe": 1017,
      "Ġindex": 1018,
      "':\\": 1019,
      "tic": 1020,
      "Ġvalues": 1021,
      "Ġso": 1022,
      "random": 1023,
      "Ġtest": 1024,
      "ant": 1025,
      "ustom": 1026,
      "ween": 1027,
      "sor": 1028,
      "])": 1029,
      "Ġexample": 1030,
      "ork": 1031,
      "arget": 1032,
      "Ġyour": 1033,
      "ound": 1034,
      "Ġlet": 1035,
      "fit": 1036,
      "so": 1037,
      "ild": 1038,
      "lower": 1039,
      "Soup": 1040,
      "autifulSoup": 1041,
      "csv": 1042,
      "Ġbetween": 1043,
      "Con": 1044,
      "ify": 1045,
      "Ġobject": 1046,
      "Ġline": 1047,
      "entiment": 1048,
      "element": 1049,
      "ype": 1050,
      "ĠBeautifulSoup": 1051,
      "jo": 1052,
      "cl": 1053,
      "**": 1054,
      "of": 1055,
      "tive": 1056,
      "bo": 1057,
      "user": 1058,
      "Ġconvert": 1059,
      "Ġcharacters": 1060,
      "Ġ//": 1061,
      "load": 1062,
      ")):\\": 1063,
      "ear": 1064,
      "arse": 1065,
      "col": 1066,
      "Ġtrain": 1067,
      "quence": 1068,
      "ating": 1069,
      "sort": 1070,
      "place": 1071,
      "Ġtemp": 1072,
      "lop": 1073,
      "Ġresponse": 1074,
      "Des": 1075,
      "Ġli": 1076,
      "Ġhave": 1077,
      "..": 1078,
      "and": 1079,
      "Ġloop": 1080,
      "ab": 1081,
      "nt": 1082,
      "sub": 1083,
      "stance": 1084,
      "json": 1085,
      "Ġstart": 1086,
      "Ġspec": 1087,
      "Ġshould": 1088,
      "tern": 1089,
      "items": 1090,
      "Ġ{'": 1091,
      "ond": 1092,
      "response": 1093,
      "indow": 1094,
      "izer": 1095,
      "Ġvari": 1096,
      "Ġfre": 1097,
      "ket": 1098,
      "label": 1099,
      "alize": 1100,
      "ystem": 1101,
      "start": 1102,
      "lask": 1103,
      "Ġsc": 1104,
      "cu": 1105,
      "process": 1106,
      "Ġsearch": 1107,
      "\"\"\"\\": 1108,
      "Ġser": 1109,
      "Ġage": 1110,
      "plot": 1111,
      "Ġhe": 1112,
      "oi": 1113,
      "Ġorder": 1114,
      "og": 1115,
      "Ġ!": 1116,
      "log": 1117,
      "You": 1118,
      "its": 1119,
      "ption": 1120,
      ").": 1121,
      "'])\\": 1122,
      "ting": 1123,
      "String": 1124,
      "mal": 1125,
      "ny": 1126,
      "inary": 1127,
      "Design": 1128,
      "ule": 1129,
      "Ġintegers": 1130,
      "Ġprints": 1131,
      "ĠCode": 1132,
      "Ġrun": 1133,
      "Ġpy": 1134,
      "Ġmulti": 1135,
      "[:": 1136,
      "Ġsec": 1137,
      "hn": 1138,
      "nw": 1139,
      "List": 1140,
      "Ġ:": 1141,
      "Ġexec": 1142,
      "river": 1143,
      "ere": 1144,
      "nresult": 1145,
      "ide": 1146,
      "Ġnumpy": 1147,
      "error": 1148,
      "Ġtable": 1149,
      "lst": 1150,
      "ies": 1151,
      "Ġ!=": 1152,
      "Ġpassword": 1153,
      "size": 1154,
      "ER": 1155,
      "xtract": 1156,
      "alid": 1157,
      "atu": 1158,
      "igh": 1159,
      "join": 1160,
      "20": 1161,
      "Ġsu": 1162,
      "Ġmo": 1163,
      "Ġlib": 1164,
      "Ġ20": 1165,
      "cept": 1166,
      "verage": 1167,
      "Ġany": 1168,
      "ĠV": 1169,
      "Ġlongest": 1170,
      "Ġnode": 1171,
      "mb": 1172,
      "nX": 1173,
      "ally": 1174,
      "Ġ[\"": 1175,
      "line": 1176,
      "PI": 1177,
      "pper": 1178,
      "Ġbo": 1179,
      "mand": 1180,
      "rror": 1181,
      "Ġos": 1182,
      "Ġdis": 1183,
      "ifier": 1184,
      "Ġopen": 1185,
      "ohn": 1186,
      "ctions": 1187,
      "ĠThis": 1188,
      "nA": 1189,
      "Ġpage": 1190,
      "ĠCo": 1191,
      "ature": 1192,
      "Ġone": 1193,
      "Ġits": 1194,
      "ible": 1195,
      "ndata": 1196,
      "Ġcharacter": 1197,
      "led": 1198,
      "ST": 1199,
      "ms": 1200,
      "Ġ}": 1201,
      "ĉĉ": 1202,
      "Ġemail": 1203,
      "Ġlibra": 1204,
      "Ġlin": 1205,
      "Ġ100": 1206,
      "os": 1207,
      "ique": 1208,
      "eld": 1209,
      "format": 1210,
      "LE": 1211,
      "token": 1212,
      "eras": 1213,
      "Ġmatrix": 1214,
      "play": 1215,
      "Ġvariable": 1216,
      "--------": 1217,
      "resent": 1218,
      "En": 1219,
      "cy": 1220,
      "ield": 1221,
      "ava": 1222,
      "Ġarg": 1223,
      "Error": 1224,
      "mit": 1225,
      "How": 1226,
      "node": 1227,
      "Ġdataset": 1228,
      "password": 1229,
      "ll": 1230,
      "nlist": 1231,
      "Ġhas": 1232,
      "nplt": 1233,
      "umn": 1234,
      "Ġfil": 1235,
      "uting": 1236,
      "Ġstore": 1237,
      "evelop": 1238,
      "ense": 1239,
      "\"]\\": 1240,
      "ĠIf": 1241,
      "True": 1242,
      "fa": 1243,
      "argest": 1244,
      "Ġtype": 1245,
      "Ġdif": 1246,
      "odule": 1247,
      "run": 1248,
      "Ġtry": 1249,
      "ndas": 1250,
      "da": 1251,
      "12": 1252,
      "nS": 1253,
      "Ġ<=": 1254,
      "ugh": 1255,
      "du": 1256,
      ");\\": 1257,
      "rough": 1258,
      "ana": 1259,
      "ĠĠĠĠĠĠĠĠĠĠĠĠĠĠĠĠĠĠĠ": 1260,
      "attern": 1261,
      "oice": 1262,
      "++": 1263,
      "ob": 1264,
      "fre": 1265,
      "new": 1266,
      "arser": 1267,
      "own": 1268,
      "ML": 1269,
      "',\\": 1270,
      "cal": 1271,
      "Ġdiv": 1272,
      "Ġver": 1273,
      "ext": 1274,
      "Ġthrough": 1275,
      "Ġproduct": 1276,
      "next": 1277,
      "Ġmaximum": 1278,
      "udent": 1279,
      "Ġbase": 1280,
      "angu": 1281,
      "ick": 1282,
      "Ġpandas": 1283,
      "prime": 1284,
      "anguage": 1285,
      "cation": 1286,
      "plicate": 1287,
      "Develop": 1288,
      "ong": 1289,
      "uild": 1290,
      "Ġsecond": 1291,
      "Ġmessage": 1292,
      "ange": 1293,
      "ĠWorld": 1294,
      "case": 1295,
      "na": 1296,
      "ĠX": 1297,
      "Ġemp": 1298,
      "rea": 1299,
      "())\\": 1300,
      "ublic": 1301,
      "rome": 1302,
      "ody": 1303,
      "ON": 1304,
      "Ġ</": 1305,
      "ee": 1306,
      "atures": 1307,
      "vector": 1308,
      "John": 1309,
      "Ġtarget": 1310,
      "lin": 1311,
      "tiv": 1312,
      "pha": 1313,
      "Ġcustom": 1314,
      "ution": 1315,
      "comp": 1316,
      "ca": 1317,
      "ĠJava": 1318,
      "Ġdatetime": 1319,
      "ĠHT": 1320,
      "'.": 1321,
      "loat": 1322,
      "Ġinteger": 1323,
      "rect": 1324,
      "\",\\": 1325,
      "Ġthen": 1326,
      "Ġthan": 1327,
      "100": 1328,
      "umber": 1329,
      "bin": 1330,
      "Ġrep": 1331,
      "Ġroot": 1332,
      "ncon": 1333,
      "ĠExec": 1334,
      "Ġwhe": 1335,
      "ending": 1336,
      "Ġid": 1337,
      "Ġinst": 1338,
      "racy": 1339,
      "strings": 1340,
      "Ġover": 1341,
      "curacy": 1342,
      "ses": 1343,
      "Ġerror": 1344,
      "Ġwrite": 1345,
      "Ġcor": 1346,
      "Ġ12": 1347,
      "Fix": 1348,
      "est": 1349,
      "div": 1350,
      "nI": 1351,
      "Ġro": 1352,
      "left": 1353,
      "QL": 1354,
      "image": 1355,
      "site": 1356,
      "http": 1357,
      "Ġmake": 1358,
      "]:\\": 1359,
      "ude": 1360,
      "Ġfe": 1361,
      "search": 1362,
      "Ġquery": 1363,
      "sentence": 1364,
      "nel": 1365,
      "ain": 1366,
      "Ġother": 1367,
      "ĠFibonacci": 1368,
      "Ġurl": 1369,
      "Ġread": 1370,
      "cry": 1371,
      "lose": 1372,
      "Ġsoup": 1373,
      "Ġnums": 1374,
      "ook": 1375,
      "nb": 1376,
      "Ġlog": 1377,
      "Ġmost": 1378,
      "www": 1379,
      "alind": 1380,
      "Ġ\"\"\"\\": 1381,
      "der": 1382,
      "ding": 1383,
      "uted": 1384,
      "ific": 1385,
      "Ġright": 1386,
      "Ġcommand": 1387,
      "Ġsol": 1388,
      "timize": 1389,
      "ĠExecuting": 1390,
      "Ġposi": 1391,
      "========": 1392,
      "Ġeven": 1393,
      "Ġtit": 1394,
      "],\\": 1395,
      "Ġ'__": 1396,
      "quency": 1397,
      "email": 1398,
      "Ġ[[": 1399,
      "Ġfactor": 1400,
      "print": 1401,
      "Ġsentiment": 1402,
      "message": 1403,
      "Ġdatabase": 1404,
      "ocument": 1405,
      "Ġhead": 1406,
      "gression": 1407,
      "ĠPrint": 1408,
      "ative": 1409,
      "Ġextract": 1410,
      "Ġformat": 1411,
      "Ġimage": 1412,
      "To": 1413,
      "ral": 1414,
      "arning": 1415,
      "ints": 1416,
      "Ġ\"\"": 1417,
      "RO": 1418,
      "Ġlst": 1419,
      "Name": 1420,
      "fy": 1421,
      "by": 1422,
      "Ġcommon": 1423,
      "Co": 1424,
      "Ġmean": 1425,
      "Exec": 1426,
      "alindrome": 1427,
      "Ġ11": 1428,
      "Ġ15": 1429,
      "ors": 1430,
      "loy": 1431,
      "cre": 1432,
      "owel": 1433,
      "ocket": 1434,
      "Ġexp": 1435,
      "price": 1436,
      "Enter": 1437,
      "Ġoper": 1438,
      "table": 1439,
      "ked": 1440,
      "nx": 1441,
      "Ġequ": 1442,
      "__':\\": 1443,
      "Ġcontent": 1444,
      "CT": 1445,
      "RL": 1446,
      "Ġleft": 1447,
      "Ġargument": 1448,
      "terate": 1449,
      "Ġpath": 1450,
      "rand": 1451,
      "tions": 1452,
      "rence": 1453,
      "values": 1454,
      "ĠK": 1455,
      "df": 1456,
      "sed": 1457,
      "ave": 1458,
      "ĠDe": 1459,
      "Ġbut": 1460,
      "layer": 1461,
      "ĠAPI": 1462,
      "vent": 1463,
      "Ġtheir": 1464,
      "nmy": 1465,
      "type": 1466,
      "Ġexecuted": 1467,
      "Execute": 1468,
      "ĠFlask": 1469,
      "Ġcv": 1470,
      "Ġz": 1471,
      "Ġbinary": 1472,
      "Ġ{}": 1473,
      "Ġdiffe": 1474,
      "Ġab": 1475,
      "body": 1476,
      "########": 1477,
      "Ġmodule": 1478,
      "Ġstat": 1479,
      "api": 1480,
      "lob": 1481,
      "db": 1482,
      "tialize": 1483,
      "Ġgra": 1484,
      "lication": 1485,
      "Ġlast": 1486,
      "lection": 1487,
      "Ġunique": 1488,
      "Ġsome": 1489,
      "ask": 1490,
      "otal": 1491,
      "fig": 1492,
      "struct": 1493,
      "ĠCon": 1494,
      "ource": 1495,
      ");": 1496,
      "page": 1497,
      "erge": 1498,
      "choice": 1499,
      "Ġ{}\\": 1500,
      "Ġlike": 1501,
      "Ġsequence": 1502,
      "return": 1503,
      "Ġcontains": 1504,
      "Class": 1505,
      "cord": 1506,
      "narr": 1507,
      "ated": 1508,
      "nect": 1509,
      "score": 1510,
      "Ġ_": 1511,
      "reak": 1512,
      "matrix": 1513,
      "Ġsi": 1514,
      "Ġfound": 1515,
      "mean": 1516,
      "Ġletter": 1517,
      "Ġimplement": 1518,
      "Ġ25": 1519,
      "lat": 1520,
      "lient": 1521,
      "Ġlanguage": 1522,
      "ĠHTML": 1523,
      "Ġlibrary": 1524,
      "Ġsize": 1525,
      "ep": 1526,
      "Ġmid": 1527,
      "content": 1528,
      "phab": 1529,
      "Ġitems": 1530,
      "request": 1531,
      "Ġprocess": 1532,
      "work": 1533,
      "Ġsqu": 1534,
      "Ġbs": 1535,
      ":\",": 1536,
      "sing": 1537,
      "].": 1538,
      "Ġaverage": 1539,
      "Ġused": 1540,
      "Ġdes": 1541,
      "hape": 1542,
      "ĠIn": 1543,
      "Ġneed": 1544,
      "ransform": 1545,
      "Ġlargest": 1546,
      "fo": 1547,
      "rector": 1548,
      "Ġscra": 1549,
      "ET": 1550,
      "unter": 1551,
      "aly": 1552,
      "Ġno": 1553,
      "til": 1554,
      "Ġtitle": 1555,
      "class": 1556,
      "ton": 1557,
      "che": 1558,
      "owels": 1559,
      "Se": 1560,
      "Ġmultip": 1561,
      "25": 1562,
      "des": 1563,
      "alled": 1564,
      "ltk": 1565,
      "Ġbreak": 1566,
      "Python": 1567,
      "Ġau": 1568,
      "Ġcase": 1569,
      "lect": 1570,
      "nn": 1571,
      "ock": 1572,
      "ĠĠĠĠĠĠ": 1573,
      "layers": 1574,
      "IN": 1575,
      "Ġtf": 1576,
      "Ġarea": 1577,
      "angle": 1578,
      "Ġnext": 1579,
      "Ar": 1580,
      "dit": 1581,
      "und": 1582,
      "clude": 1583,
      "ng": 1584,
      "parser": 1585,
      "mount": 1586,
      "\".": 1587,
      "ming": 1588,
      "Data": 1589,
      "inter": 1590,
      "dian": 1591,
      "Ġlists": 1592,
      "Ġrepresent": 1593,
      "Number": 1594,
      "Ġ$": 1595,
      "ELE": 1596,
      "SON": 1597,
      "Ġparame": 1598,
      "Ġlabel": 1599,
      "ell": 1600,
      "pi": 1601,
      "hat": 1602,
      "Ġthere": 1603,
      "Ġmain": 1604,
      "nThe": 1605,
      "Ġhand": 1606,
      "ĠEx": 1607,
      "nH": 1608,
      "ax": 1609,
      "ndf": 1610,
      "Ġ?": 1611,
      "Ġgreate": 1612,
      "nipp": 1613,
      "Ġtk": 1614,
      "raw": 1615,
      "Ġdig": 1616,
      "erson": 1617,
      "nippet": 1618,
      "dig": 1619,
      "qui": 1620,
      "ĠReturn": 1621,
      "Ġmethods": 1622,
      "{\\": 1623,
      "inal": 1624,
      "dio": 1625,
      "ual": 1626,
      "plicates": 1627,
      "ical": 1628,
      "utes": 1629,
      "Ġtra": 1630,
      "Ġplt": 1631,
      "Ġ\",": 1632,
      "((": 1633,
      "nurl": 1634,
      "AT": 1635,
      "ĠĠĠĠĠĠĠĠĠ": 1636,
      "nThis": 1637,
      "ake": 1638,
      "Ġprovi": 1639,
      "Ġnltk": 1640,
      "args": 1641,
      "Ġperform": 1642,
      "nF": 1643,
      "ĠURL": 1644,
      "Ġ30": 1645,
      "view": 1646,
      "sorted": 1647,
      "Ġprice": 1648,
      "Ġad": 1649,
      "Ġquick": 1650,
      "Ġsnippet": 1651,
      "Ġdict": 1652,
      "Ġtoken": 1653,
      "Ġdf": 1654,
      "ĠHere": 1655,
      "Pro": 1656,
      "idth": 1657,
      "predict": 1658,
      "cending": 1659,
      "ler": 1660,
      "Ġsame": 1661,
      "ault": 1662,
      "Ġmatch": 1663,
      "'))\\": 1664,
      "Ġman": 1665,
      "Ġapplication": 1666,
      "Ġclassify": 1667,
      "ĠJSON": 1668,
      "Ġserver": 1669,
      "Ġonly": 1670,
      "etch": 1671,
      "ĠIni": 1672,
      "ui": 1673,
      "Ġdocument": 1674,
      "trib": 1675,
      "mi": 1676,
      "state": 1677,
      "=['": 1678,
      "dius": 1679,
      "rectory": 1680,
      "Ġfloat": 1681,
      "Ġthem": 1682,
      "Ġwebsite": 1683,
      "cle": 1684,
      "Ġdivis": 1685,
      "yn": 1686,
      "Ġactiv": 1687,
      "nder": 1688,
      "Ġoc": 1689,
      "Ġmath": 1690,
      "[\"": 1691,
      "fil": 1692,
      "lock": 1693,
      "gative": 1694,
      "Ġinter": 1695,
      "Ġempty": 1696,
      "keras": 1697,
      "ili": 1698,
      "ĠSQL": 1699,
      "ĠGet": 1700,
      "Implement": 1701,
      "no": 1702,
      "Ġparse": 1703,
      "iz": 1704,
      "alary": 1705,
      "Ġwould": 1706,
      "ROM": 1707,
      "ELECT": 1708,
      "Ġdu": 1709,
      "\",\"": 1710,
      "show": 1711,
      "ĠString": 1712,
      "hen": 1713,
      "ous": 1714,
      "rices": 1715,
      "Ġlearning": 1716,
      "ise": 1717,
      "ols": 1718,
      "ĠNode": 1719,
      "mbda": 1720,
      "Ġcall": 1721,
      "Ġvalid": 1722,
      "Ġtree": 1723,
      "ĠCheck": 1724,
      "day": 1725,
      "write": 1726,
      "arg": 1727,
      "{'": 1728,
      "umns": 1729,
      "ĠAd": 1730,
      "Ġhow": 1731,
      "Ġcolumn": 1732,
      "Ġsystem": 1733,
      "Ġpredi": 1734,
      "]]\\": 1735,
      "ning": 1736,
      "ename": 1737,
      "ries": 1738,
      "Ġdete": 1739,
      "cha": 1740,
      "ender": 1741,
      "Ġ**": 1742,
      "sw": 1743,
      "lease": 1744,
      "exec": 1745,
      "mut": 1746,
      "Ġdisplay": 1747,
      "Ġversion": 1748,
      "men": 1749,
      "Ġodd": 1750,
      "Ġfactorial": 1751,
      ")]\\": 1752,
      "graph": 1753,
      "Ġ>=": 1754,
      "11": 1755,
      "Ġwhen": 1756,
      "sert": 1757,
      "}')\\": 1758,
      "ular": 1759,
      "Ġresults": 1760,
      "formation": 1761,
      "Ġinstall": 1762,
      "ĠPro": 1763,
      "Ġmore": 1764,
      "range": 1765,
      "Script": 1766,
      "from": 1767,
      "++)": 1768,
      "randint": 1769,
      "vice": 1770,
      "Construct": 1771,
      "32": 1772,
      "sole": 1773,
      "64": 1774,
      "lete": 1775,
      "Ġlower": 1776,
      "nput": 1777,
      "().": 1778,
      "()`": 1779,
      "ast": 1780,
      "tered": 1781,
      "Ġvector": 1782,
      "nelse": 1783,
      "Ġ\"\"\"": 1784,
      "Ġaut": 1785,
      "query": 1786,
      "ined": 1787,
      "open": 1788,
      "Ch": 1789,
      "Ġspecific": 1790,
      "nHere": 1791,
      "Ġ('": 1792,
      "Ġmerge": 1793,
      "ĠSt": 1794,
      "para": 1795,
      "replace": 1796,
      "Ġsq": 1797,
      "sequence": 1798,
      "ssible": 1799,
      "apple": 1800,
      "Ġpredict": 1801,
      "ging": 1802,
      "Ġfibonacci": 1803,
      "txt": 1804,
      "ays": 1805,
      "Ġworld": 1806,
      "Ġalphab": 1807,
      "top": 1808,
      "Ġ\"\"\\": 1809,
      "cores": 1810,
      "Ġspa": 1811,
      "Ġsuch": 1812,
      "term": 1813,
      "Ġinformation": 1814,
      "dition": 1815,
      "(['": 1816,
      "spa": 1817,
      "TP": 1818,
      "parse": 1819,
      "dir": 1820,
      "tensor": 1821,
      "hello": 1822,
      "Ġtop": 1823,
      "cted": 1824,
      "Ġstate": 1825,
      "ref": 1826,
      "Given": 1827,
      "nstring": 1828,
      "vel": 1829,
      "common": 1830,
      "ango": 1831,
      "Ġyear": 1832,
      "ĠSe": 1833,
      "'],": 1834,
      "stat": 1835,
      "plotlib": 1836,
      "ssion": 1837,
      "Ġform": 1838,
      "ĠYou": 1839,
      "\":\\": 1840,
      "Ġactivation": 1841,
      "lu": 1842,
      "sv": 1843,
      "Ġexcept": 1844,
      "Ġupdate": 1845,
      "Ġcontaining": 1846,
      "Regression": 1847,
      "Ġexpression": 1848,
      "ckage": 1849,
      "Ġfiles": 1850,
      "board": 1851,
      "host": 1852,
      "Ġfrequency": 1853,
      "ĠData": 1854,
      "elements": 1855,
      "vir": 1856,
      "})\\": 1857,
      "sius": 1858,
      "flow": 1859,
      "Ġph": 1860,
      "99": 1861,
      ")):": 1862,
      "ception": 1863,
      "valu": 1864,
      "Classifier": 1865,
      "ES": 1866,
      "NT": 1867,
      "nresponse": 1868,
      "ĠJavaScript": 1869,
      "Ġwant": 1870,
      "Ġreplace": 1871,
      "cription": 1872,
      "valid": 1873,
      "ĠLo": 1874,
      "Ġgreater": 1875,
      "thor": 1876,
      "Ġsm": 1877,
      "Ġval": 1878,
      "Ġcurr": 1879,
      "Frame": 1880,
      "nW": 1881,
      "nnum": 1882,
      "ĠY": 1883,
      "rences": 1884,
      "city": 1885,
      "her": 1886,
      "Ġbased": 1887,
      "Ġway": 1888,
      "late": 1889,
      "pes": 1890,
      "('/": 1891,
      "Ġupper": 1892,
      "Ġcustomer": 1893,
      "Ġoccur": 1894,
      "},": 1895,
      "Ġexist": 1896,
      "Ġpossible": 1897,
      "ownload": 1898,
      "rid": 1899,
      "??": 1900,
      "Ġsubstring": 1901,
      "pop": 1902,
      "quent": 1903,
      "ĠDriver": 1904,
      "ties": 1905,
      "etwork": 1906,
      "nsoup": 1907,
      "!\\": 1908,
      "ory": 1909,
      "Ġrequi": 1910,
      "Ġtri": 1911,
      "Ġwork": 1912,
      "keys": 1913,
      ")]": 1914,
      "Ġscore": 1915,
      "','": 1916,
      "ivot": 1917,
      "cii": 1918,
      "vie": 1919,
      "nO": 1920,
      "Ġvis": 1921,
      "Ġaddress": 1922,
      "Ġcolor": 1923,
      "cat": 1924,
      "ector": 1925,
      "Ġhere": 1926,
      "execute": 1927,
      "map": 1928,
      "Ġ')\\": 1929,
      "000": 1930,
      "now": 1931,
      "Ġequal": 1932,
      "ĠInitialize": 1933,
      "Ġhigh": 1934,
      "hile": 1935,
      "gro": 1936,
      "ood": 1937,
      "asic": 1938,
      "Ġsim": 1939,
      "Ġpass": 1940,
      "ner": 1941,
      "Ġ|": 1942,
      "aut": 1943,
      "uff": 1944,
      "Element": 1945,
      "route": 1946,
      "Ġdifferent": 1947,
      "50": 1948,
      "ite": 1949,
      "Ġstruct": 1950,
      "loyee": 1951,
      "Ġstudent": 1952,
      "Ġpattern": 1953,
      "ential": 1954,
      "Op": 1955,
      "connect": 1956,
      "exp": 1957,
      "username": 1958,
      "ling": 1959,
      "oid": 1960,
      "tep": 1961,
      "anana": 1962,
      "point": 1963,
      "viron": 1964,
      "Ġ[]": 1965,
      "Ġdoes": 1966,
      "chine": 1967,
      "nwith": 1968,
      "'t": 1969,
      "erature": 1970,
      "De": 1971,
      "nIn": 1972,
      "pred": 1973,
      "Ġdist": 1974,
      "old": 1975,
      "Ġthree": 1976,
      "ified": 1977,
      "Ġwhere": 1978,
      "Ġ-=": 1979,
      "ici": 1980,
      "freq": 1981,
      "Ġflask": 1982,
      "ision": 1983,
      "sq": 1984,
      "lite": 1985,
      ":-": 1986,
      "product": 1987,
      "upper": 1988,
      "Ġpost": 1989,
      "Ġmatplotlib": 1990,
      "Ġsolution": 1991,
      "ĠFunction": 1992,
      "Ġdep": 1993,
      "istic": 1994,
      "AR": 1995,
      "ĠImage": 1996,
      "ĠQ": 1997,
      "uter": 1998,
      "charac": 1999,
      "ome": 2000,
      "nection": 2001,
      "reverse": 2002,
      "heit": 2003,
      "renheit": 2004,
      "net": 2005,
      "Ġini": 2006,
      "fter": 2007,
      "Ġpair": 2008,
      "Ġfilter": 2009,
      "Me": 2010,
      "lest": 2011,
      "Ġboard": 2012,
      "hrenheit": 2013,
      "jango": 2014,
      "mid": 2015,
      "Ġsocket": 2016,
      "ration": 2017,
      "ĠIt": 2018,
      "ower": 2019,
      "45": 2020,
      "mallest": 2021,
      "Ġwas": 2022,
      "ascii": 2023,
      "Ġsquare": 2024,
      "Ġtask": 2025,
      "ĠCalculate": 2026,
      "rowser": 2027,
      "lean": 2028,
      "Ġreversed": 2029,
      "ntext": 2030,
      "year": 2031,
      "erver": 2032,
      "elp": 2033,
      "Ġsubprocess": 2034,
      "ments": 2035,
      "Ġprogramming": 2036,
      "Ġsimple": 2037,
      "fine": 2038,
      "Dense": 2039,
      "andom": 2040,
      "atch": 2041,
      "ris": 2042,
      "AB": 2043,
      "Ġ\")\\": 2044,
      "act": 2045,
      "unct": 2046,
      "Ġmachine": 2047,
      "Ġencry": 2048,
      "address": 2049,
      "RE": 2050,
      "Ġoptimize": 2051,
      "util": 2052,
      "ets": 2053,
      "Ġdirectory": 2054,
      "ighb": 2055,
      "Ġboth": 2056,
      "ĠAdded": 2057,
      "Ġreg": 2058,
      "Ġvowels": 2059,
      "ility": 2060,
      "Ġautom": 2061,
      "question": 2062,
      "gle": 2063,
      "inear": 2064,
      "Ġkeras": 2065,
      "pted": 2066,
      "Ġmon": 2067,
      "Ġwhether": 2068,
      ":',": 2069,
      "arity": 2070,
      "Ġever": 2071,
      "Ġlinear": 2072,
      "nYou": 2073,
      "Ġpop": 2074,
      "Ġfeatures": 2075,
      "Array": 2076,
      "Ġvariables": 2077,
      "Ex": 2078,
      "Ġcomple": 2079,
      "ights": 2080,
      "Ġpublic": 2081,
      "ĠFor": 2082,
      "etic": 2083,
      "Ġstack": 2084,
      "ĠLet": 2085,
      "Ġrows": 2086,
      "Ġhtml": 2087,
      "Ġass": 2088,
      "rop": 2089,
      "ush": 2090,
      "napp": 2091,
      "cimal": 2092,
      "''": 2093,
      "transform": 2094,
      "queue": 2095,
      "ĠAr": 2096,
      "').": 2097,
      "object": 2098,
      "ipher": 2099,
      "utton": 2100,
      "come": 2101,
      "[]": 2102,
      "sp": 2103,
      "Ġparameters": 2104,
      "umer": 2105,
      "total": 2106,
      "ark": 2107,
      "Ġ50": 2108,
      "]+": 2109,
      "side": 2110,
      "first": 2111,
      "Ġback": 2112,
      "Ġload": 2113,
      "valuate": 2114,
      "><": 2115,
      "ag": 2116,
      "Ġav": 2117,
      "nAI": 2118,
      "Ġfreq": 2119,
      "._": 2120,
      "Ġcolumns": 2121,
      "close": 2122,
      "Ġsplit": 2123,
      "Ġminimum": 2124,
      "agram": 2125,
      "Ġdp": 2126,
      "cd": 2127,
      "ok": 2128,
      "Ġsample": 2129,
      "current": 2130,
      "digits": 2131,
      "apit": 2132,
      "----------------": 2133,
      "ĠPy": 2134,
      "Ġpara": 2135,
      "Ġtensor": 2136,
      "Ġaccuracy": 2137,
      "ogui": 2138,
      "Ġdetect": 2139,
      "autogui": 2140,
      "Ġmedian": 2141,
      "(\\": 2142,
      "reating": 2143,
      "lem": 2144,
      "ĠIterate": 2145,
      "Ġoptim": 2146,
      "Ġconn": 2147,
      "pyplot": 2148,
      "Ġtup": 2149,
      "alance": 2150,
      "ote": 2151,
      "org": 2152,
      "hest": 2153,
      "indows": 2154,
      "Comp": 2155,
      "output": 2156,
      "ighest": 2157,
      "Ġpositive": 2158,
      "cor": 2159,
      "ffici": 2160,
      "Value": 2161,
      "ger": 2162,
      "Ġbasic": 2163,
      "Ġpoint": 2164,
      "Ġcalled": 2165,
      "Ġdefault": 2166,
      "Ġdelete": 2167,
      "gre": 2168,
      "entify": 2169,
      "[-": 2170,
      "idx": 2171,
      "nwhile": 2172,
      "Ġlabels": 2173,
      "Ġchange": 2174,
      "Ġattrib": 2175,
      "fi": 2176,
      "target": 2177,
      "Ġpalindrome": 2178,
      "ticle": 2179,
      "Can": 2180,
      "ving": 2181,
      "wo": 2182,
      "ĠAI": 2183,
      "Ġdistance": 2184,
      "info": 2185,
      "ĠList": 2186,
      "Ġkeys": 2187,
      "web": 2188,
      "frame": 2189,
      "ose": 2190,
      "pos": 2191,
      "Ġcompute": 2192,
      "Ġzip": 2193,
      "ulation": 2194,
      "npublic": 2195,
      "15": 2196,
      "Using": 2197,
      "back": 2198,
      "lish": 2199,
      "alys": 2200,
      "\"]": 2201,
      "PO": 2202,
      "bot": 2203,
      "shape": 2204,
      "Ġanagram": 2205,
      "Ġclassifier": 2206,
      "Ġgame": 2207,
      "accuracy": 2208,
      "[::-": 2209,
      "Ġlow": 2210,
      "Ġsys": 2211,
      "Ġamount": 2212,
      "Ġ''.": 2213,
      "ather": 2214,
      "longest": 2215,
      "Ġcsv": 2216,
      "Ġsqlite": 2217,
      "alysis": 2218,
      "remove": 2219,
      "Ġbest": 2220,
      "Ġob": 2221,
      "Ġpivot": 2222,
      "Ġcost": 2223,
      "Ġpermut": 2224,
      ".')\\": 2225,
      "30": 2226,
      "emp": 2227,
      "send": 2228,
      "lambda": 2229,
      "================": 2230,
      "Ġwithout": 2231,
      "nsub": 2232,
      "post": 2233,
      "nTo": 2234,
      "ĠSet": 2235,
      "vironment": 2236,
      "ence": 2237,
      "unc": 2238,
      "ĠComp": 2239,
      "Ġstatic": 2240,
      "nint": 2241,
      "ts": 2242,
      ".\"\\": 2243,
      "pg": 2244,
      "ircle": 2245,
      "Ġcorrect": 2246,
      "ey": 2247,
      "Ġnetwork": 2248,
      "Ġbu": 2249,
      "Ġpoints": 2250,
      "ooks": 2251,
      "trieve": 2252,
      "Ġtrans": 2253,
      "Ġusers": 2254,
      "ewrite": 2255,
      "Ġam": 2256,
      "ĠTo": 2257,
      "ategor": 2258,
      "Ġabout": 2259,
      "Ġiterate": 2260,
      "Ġdefine": 2261,
      "selection": 2262,
      "blem": 2263,
      "Ġfix": 2264,
      "'m": 2265,
      "Ġcounts": 2266,
      "Ġsci": 2267,
      "Ġpackage": 2268,
      "ĠMy": 2269,
      "entences": 2270,
      "ustomer": 2271,
      "ouble": 2272,
      "oe": 2273,
      "relu": 2274,
      "stack": 2275,
      "ĠĠĠĠĠĠĠĠĠĠĠĠĠĠĠĠĠĠĠĠĠĠĠ": 2276,
      "port": 2277,
      "Ġargs": 2278,
      "Ġheight": 2279,
      "Ġlibraries": 2280,
      "ĠLinear": 2281,
      "compile": 2282,
      "fficient": 2283,
      "posi": 2284,
      "ru": 2285,
      "...\\": 2286,
      "bug": 2287,
      "Ġfield": 2288,
      "Edit": 2289,
      "Vector": 2290,
      "trics": 2291,
      "Ġ{\"": 2292,
      "Ġwri": 2293,
      "123": 2294,
      "amp": 2295,
      "fix": 2296,
      "tree": 2297,
      "orks": 2298,
      "Ġside": 2299,
      "Ġinclude": 2300,
      "ils": 2301,
      "ĠUse": 2302,
      "status": 2303,
      "ĠAdd": 2304,
      "letters": 2305,
      "Ġdigits": 2306,
      "'):\\": 2307,
      "nroot": 2308,
      "nfunction": 2309,
      "ash": 2310,
      "Ġposition": 2311,
      ")-": 2312,
      "ath": 2313,
      "ĠTrain": 2314,
      "even": 2315,
      "ssing": 2316,
      "ĠText": 2317,
      "Ġte": 2318,
      "Ġter": 2319,
      "ERE": 2320,
      "Ġmonth": 2321,
      "!\"\\": 2322,
      "raction": 2323,
      "lick": 2324,
      "Ġbuild": 2325,
      "most": 2326,
      "ĠWe": 2327,
      "mg": 2328,
      "Ġmultiple": 2329,
      "14": 2330,
      "sol": 2331,
      "quential": 2332,
      "tag": 2333,
      "linear": 2334,
      "ĠDefine": 2335,
      "cent": 2336,
      "ccess": 2337,
      "game": 2338,
      "Ġgre": 2339,
      "Ġhash": 2340,
      "models": 2341,
      "area": 2342,
      "encode": 2343,
      "Ġ16": 2344,
      "last": 2345,
      "ference": 2346,
      "gni": 2347,
      "Ġpresent": 2348,
      "unctu": 2349,
      "Ġtraining": 2350,
      "latten": 2351,
      "ares": 2352,
      "Ġallow": 2353,
      "Ġletters": 2354,
      "=(": 2355,
      "Sum": 2356,
      "`,": 2357,
      "ross": 2358,
      "ull": 2359,
      "elsius": 2360,
      "iginal": 2361,
      "Ġshow": 2362,
      "None": 2363,
      "ict": 2364,
      "Ġ&": 2365,
      "Ġ',": 2366,
      "Vectorizer": 2367,
      "];\\": 2368,
      "with": 2369,
      "umps": 2370,
      "ates": 2371,
      "Ġwithin": 2372,
      "substring": 2373,
      "Ġspecified": 2374,
      "File": 2375,
      "St": 2376,
      "Ġrunning": 2377,
      "tokenize": 2378,
      "pattern": 2379,
      "rt": 2380,
      "Ġtrue": 2381,
      "Ġnumer": 2382,
      "dataset": 2383,
      "abc": 2384,
      "AL": 2385,
      "Tree": 2386,
      "Ġenvironment": 2387,
      "Ġarguments": 2388,
      "ins": 2389,
      "Ġsing": 2390,
      "ĠCount": 2391,
      "nSELECT": 2392,
      "function": 2393,
      "Ġmultipli": 2394,
      "redi": 2395,
      "Ġinte": 2396,
      "Ġ<<": 2397,
      "ĠSplit": 2398,
      "oogle": 2399,
      "################": 2400,
      "Ġhelp": 2401,
      "Sub": 2402,
      "Ġpla": 2403,
      "Ġrecord": 2404,
      "sser": 2405,
      "Ġstructure": 2406,
      "Ġgener": 2407,
      "Ġjsonify": 2408,
      "factor": 2409,
      ".\")\\": 2410,
      "Ġ(\"": 2411,
      "Ġthese": 2412,
      "Ġwindow": 2413,
      "Ġdb": 2414,
      "Ġsw": 2415,
      "older": 2416,
      "HERE": 2417,
      "book": 2418,
      "banana": 2419,
      "the": 2420,
      "ubble": 2421,
      "aliz": 2422,
      "16": 2423,
      "ilt": 2424,
      "termine": 2425,
      "Ġpyautogui": 2426,
      "generate": 2427,
      "ĠGenerate": 2428,
      "orest": 2429,
      "rest": 2430,
      "lize": 2431,
      "unique": 2432,
      "0000": 2433,
      "Ġaccess": 2434,
      "Ġtimes": 2435,
      "Ġdivisible": 2436,
      "orch": 2437,
      "Ġmay": 2438,
      "Ġhighest": 2439,
      "Ġnames": 2440,
      "Ġlink": 2441,
      "`.": 2442,
      "zip": 2443,
      "},\\": 2444,
      "ont": 2445,
      "dify": 2446,
      "ĠTest": 2447,
      "]))\\": 2448,
      "Ġfetch": 2449,
      "nclf": 2450,
      "gine": 2451,
      "io": 2452,
      "not": 2453,
      "ox": 2454,
      "Ġsmallest": 2455,
      "stru": 2456,
      "Ġinsert": 2457,
      "Ġplayer": 2458,
      "ĠMake": 2459,
      "Ġsets": 2460,
      "chars": 2461,
      "Po": 2462,
      "Ġsy": 2463,
      "other": 2464,
      "Ġproblem": 2465,
      "server": 2466,
      "obj": 2467,
      "instance": 2468,
      "ĠSystem": 2469,
      "Ġcombin": 2470,
      "aries": 2471,
      "color": 2472,
      "Search": 2473,
      "Ġ.": 2474,
      "Ġfunctions": 2475,
      "ĠLoad": 2476,
      "App": 2477,
      "Ġclose": 2478,
      "{}": 2479,
      "Ġquestion": 2480,
      "loc": 2481,
      "Ġalso": 2482,
      "Ġstock": 2483,
      "Ġtensorflow": 2484,
      "SS": 2485,
      "dis": 2486,
      "Ġcompare": 2487,
      "cel": 2488,
      "({'": 2489,
      "Ġsee": 2490,
      "check": 2491,
      "\">": 2492,
      "xx": 2493,
      "ume": 2494,
      "lines": 2495,
      "Ġprovided": 2496,
      "Build": 2497,
      "reg": 2498,
      "Ġsto": 2499,
      "cost": 2500,
      "())": 2501,
      "Max": 2502,
      "ural": 2503,
      "local": 2504,
      "Ġbeen": 2505,
      "Len": 2506,
      "fore": 2507,
      "omial": 2508,
      "Ġradius": 2509,
      "alyzer": 2510,
      "An": 2511,
      "Ġsave": 2512,
      "lice": 2513,
      "Ġ--": 2514,
      "ĠOp": 2515,
      "Ġchecks": 2516,
      "sses": 2517,
      "Ġ32": 2518,
      "datetime": 2519,
      "!')\\": 2520,
      "Ġnegative": 2521,
      "cursor": 2522,
      "squ": 2523,
      "orma": 2524,
      "anti": 2525,
      "ird": 2526,
      "apitalize": 2527,
      "80": 2528,
      "ĠInput": 2529,
      "Ġcont": 2530,
      "Ġmovie": 2531,
      "characters": 2532,
      "Sort": 2533,
      "ik": 2534,
      "Ġindi": 2535,
      "be": 2536,
      "thing": 2537,
      "ĠĠĠĠĠĠĠĠĠĠĠĠĠ": 2538,
      "Ġselect": 2539,
      "ĠRandom": 2540,
      "Text": 2541,
      "nwords": 2542,
      "sample": 2543,
      "Ġax": 2544,
      "Ġthey": 2545,
      "leep": 2546,
      "Ġrecur": 2547,
      "Ġseries": 2548,
      "duplicates": 2549,
      "ĠĠĠĠĠĠĠĠĠĠĠĠĠĠĠĠĠĠĠĠĠĠĠĠĠĠĠĠĠĠĠĠ": 2550,
      "processing": 2551,
      "Ġurllib": 2552,
      "ĠLinearRegression": 2553,
      "lus": 2554,
      "Ġwidth": 2555,
      "nFROM": 2556,
      "space": 2557,
      "ever": 2558,
      "stri": 2559,
      "Ġca": 2560,
      "Ġlong": 2561,
      "Ġseen": 2562,
      "window": 2563,
      "Ġnon": 2564,
      "driver": 2565,
      "Ġafter": 2566,
      "ĠFind": 2567,
      "(),": 2568,
      "mension": 2569,
      "gin": 2570,
      "glet": 2571,
      "Ġcategor": 2572,
      "Ġsolve": 2573,
      "Col": 2574,
      "Ġascending": 2575,
      "Ġ\"))\\": 2576,
      "[:,": 2577,
      "ait": 2578,
      "king": 2579,
      "lections": 2580,
      "respon": 2581,
      "clus": 2582,
      "False": 2583,
      "ulate": 2584,
      "Ġgro": 2585,
      "duce": 2586,
      "palindrome": 2587,
      "Ġ[\\": 2588,
      "Ġanalysis": 2589,
      "tact": 2590,
      "Ġphone": 2591,
      "nlet": 2592,
      "sive": 2593,
      "ely": 2594,
      "ĠApp": 2595,
      "Ġprev": 2596,
      "Ġalphabetic": 2597,
      "Mo": 2598,
      "ware": 2599,
      "Ġstd": 2600,
      "]:": 2601,
      "ream": 2602,
      "Ġstatement": 2603,
      "Ġsingle": 2604,
      "hi": 2605,
      "orm": 2606,
      "ĠLin": 2607,
      "Ġpar": 2608,
      "cies": 2609,
      "Ġuses": 2610,
      "two": 2611,
      "Ġtorch": 2612,
      "Ġenter": 2613,
      "sentiment": 2614,
      "Set": 2615,
      "socket": 2616,
      "onent": 2617,
      "unctuation": 2618,
      "teps": 2619,
      "cogni": 2620,
      "ube": 2621,
      "match": 2622,
      "Ġfeature": 2623,
      "Ġmi": 2624,
      "'].": 2625,
      "Ġcalculates": 2626,
      "Ġsalary": 2627,
      "umerate": 2628,
      "Id": 2629,
      "Ġport": 2630,
      "Ġmode": 2631,
      ")+": 2632,
      "var": 2633,
      "Ġsource": 2634,
      "Ġinstance": 2635,
      "Ġincre": 2636,
      "Ġ'.": 2637,
      "Ġblock": 2638,
      "Ġvoid": 2639,
      "Ġconsole": 2640,
      "caten": 2641,
      "...": 2642,
      "labels": 2643,
      "Ġoperator": 2644,
      "filename": 2645,
      "(__": 2646,
      "01": 2647,
      "bar": 2648,
      "scores": 2649,
      "section": 2650,
      "nconn": 2651,
      "Ġdigit": 2652,
      "ATE": 2653,
      "Optimize": 2654,
      "CD": 2655,
      "Th": 2656,
      "ited": 2657,
      "Ġmultiply": 2658,
      "Ġcipher": 2659,
      "distance": 2660,
      "Ġmem": 2661,
      "Ġtag": 2662,
      "rown": 2663,
      "Ġpredictions": 2664,
      "swer": 2665,
      "Ġbuilt": 2666,
      "width": 2667,
      "Ġplot": 2668,
      "Ġ''\\": 2669,
      "Ġlowercase": 2670,
      "What": 2671,
      "jpg": 2672,
      "Ġgo": 2673,
      "Ġevery": 2674,
      "Ġthread": 2675,
      "Ġinputs": 2676,
      "Ġcorrespon": 2677,
      "import": 2678,
      "Ġsp": 2679,
      "Ġpip": 2680,
      "Ġconnection": 2681,
      "asks": 2682,
      "Ġdecimal": 2683,
      "Ġdetermine": 2684,
      "alidate": 2685,
      "box": 2686,
      "Ġmove": 2687,
      "Ġscrape": 2688,
      "DataFrame": 2689,
      "Ġord": 2690,
      "here": 2691,
      "tails": 2692,
      "Ġobjects": 2693,
      "ĠCounter": 2694,
      "IL": 2695,
      "fibonacci": 2696,
      "enter": 2697,
      "letter": 2698,
      "Ġidentify": 2699,
      "Ġcalcul": 2700,
      "location": 2701,
      "tings": 2702,
      "ification": 2703,
      "float": 2704,
      "}'\\": 2705,
      "ighbors": 2706,
      ").\\": 2707,
      "xml": 2708,
      "yle": 2709,
      "Ġbook": 2710,
      "Ġcould": 2711,
      "Ġunder": 2712,
      "tax": 2713,
      "Ġencode": 2714,
      "Ġcomputer": 2715,
      "Ġtemperature": 2716,
      "Ġanagrams": 2717,
      "Ġclient": 2718,
      "ĠINT": 2719,
      "Ġenumerate": 2720,
      "Ġcollections": 2721,
      "\">\\": 2722,
      "mary": 2723,
      "version": 2724,
      "Ġconfig": 2725,
      "ĠRead": 2726,
      "OU": 2727,
      "browser": 2728,
      "Ġite": 2729,
      "Ġ200": 2730,
      "dictionary": 2731,
      "pol": 2732,
      "Ġconst": 2733,
      "nsum": 2734,
      "Ġtwe": 2735,
      "counts": 2736,
      "loads": 2737,
      "gex": 2738,
      "ĠExample": 2739,
      "ormalize": 2740,
      "dep": 2741,
      "radius": 2742,
      "omain": 2743,
      "cond": 2744,
      "Field": 2745,
      "IM": 2746,
      "event": 2747,
      "Ġframe": 2748,
      "ĠSort": 2749,
      "points": 2750,
      "Ġrequired": 2751,
      "tual": 2752,
      "ync": 2753,
      "Ġsyn": 2754,
      "Ġevent": 2755,
      "ĠFROM": 2756,
      "Find": 2757,
      "My": 2758,
      "ings": 2759,
      "nsubprocess": 2760,
      "GET": 2761,
      "doc": 2762,
      "stall": 2763,
      "Ġworks": 2764,
      "entro": 2765,
      "ideo": 2766,
      "Ġfixed": 2767,
      "Length": 2768,
      "names": 2769,
      "Ġexam": 2770,
      "ninput": 2771,
      "second": 2772,
      "config": 2773,
      "fic": 2774,
      "exe": 2775,
      "Ġpairs": 2776,
      "ID": 2777,
      "lue": 2778,
      "Ġincl": 2779,
      "__)\\": 2780,
      "ĠLog": 2781,
      "Ġduplicates": 2782,
      "zy": 2783,
      "Ġinstalled": 2784,
      "POST": 2785,
      "!\")\\": 2786,
      ")))\\": 2787,
      "78": 2788,
      "Ac": 2789,
      "Node": 2790,
      "largest": 2791,
      "system": 2792,
      "Ġspe": 2793,
      "Ġbot": 2794,
      "IT": 2795,
      "]]": 2796,
      "dle": 2797,
      "nC": 2798,
      "nk": 2799,
      "std": 2800,
      "nserver": 2801,
      "Ġsupp": 2802,
      "Res": 2803,
      "Ġusername": 2804,
      "SE": 2805,
      "assword": 2806,
      "ward": 2807,
      "als": 2808,
      "Ġdouble": 2809,
      "ctionaries": 2810,
      "ĠSta": 2811,
      "Char": 2812,
      "Ġpermutations": 2813,
      "Age": 2814,
      "Ġperson": 2815,
      "24": 2816,
      "OT": 2817,
      "tf": 2818,
      "wise": 2819,
      "create": 2820,
      "ini": 2821,
      "ĠĠĠĠĠĠĠĠĠĠ": 2822,
      "Ġfinds": 2823,
      "90": 2824,
      "ln": 2825,
      "Ġfib": 2826,
      "Ġpri": 2827,
      "Ġday": 2828,
      "utf": 2829,
      "Ġhandle": 2830,
      "Ġsmt": 2831,
      "student": 2832,
      "dia": 2833,
      "Ġoriginal": 2834,
      "features": 2835,
      "Convert": 2836,
      "Ġtriangle": 2837,
      "ics": 2838,
      "plib": 2839,
      "Ġlinked": 2840,
      "Ġpi": 2841,
      "ssue": 2842,
      "Ġ13": 2843,
      "hand": 2844,
      "Ġoptions": 2845,
      "ization": 2846,
      "Ġcorresponding": 2847,
      "field": 2848,
      "lable": 2849,
      "([[": 2850,
      "ready": 2851,
      "uggest": 2852,
      "-%": 2853,
      "OR": 2854,
      "Please": 2855,
      "hot": 2856,
      "Ġneural": 2857,
      "ability": 2858,
      "iki": 2859,
      "nN": 2860,
      "nm": 2861,
      "save": 2862,
      "Ġgen": 2863,
      "olume": 2864,
      "ality": 2865,
      "update": 2866,
      "ĠOpen": 2867,
      "ai": 2868,
      "iew": 2869,
      "env": 2870,
      "Ġdays": 2871,
      "lasses": 2872,
      "Ġanother": 2873,
      "views": 2874,
      "SQL": 2875,
      "ls": 2876,
      "include": 2877,
      "urse": 2878,
      "Ġdeve": 2879,
      "Ġless": 2880,
      "cessary": 2881,
      "Ġmodels": 2882,
      "13": 2883,
      "Ġproper": 2884,
      "Ġ40": 2885,
      "rows": 2886,
      "Ġobj": 2887,
      "Ġlinks": 2888,
      "face": 2889,
      "),\\": 2890,
      "abel": 2891,
      "nY": 2892,
      "Ġproject": 2893,
      "ncur": 2894,
      "height": 2895,
      "Ġmerged": 2896,
      "antity": 2897,
      "Ġexamine": 2898,
      "19": 2899,
      "Ġ=>": 2900,
      "Ġpower": 2901,
      "Ġrender": 2902,
      "ched": 2903,
      "odd": 2904,
      "ause": 2905,
      "(-": 2906,
      "World": 2907,
      "ane": 2908,
      "monst": 2909,
      "Ġmultiplication": 2910,
      "></": 2911,
      "Key": 2912,
      "grid": 2913,
      "tract": 2914,
      "ernet": 2915,
      "Ġ\"__": 2916,
      "ĠDoe": 2917,
      "Ġscraper": 2918,
      "ouse": 2919,
      "ĠImplement": 2920,
      "Ġsorting": 2921,
      "link": 2922,
      "Ġsimil": 2923,
      "sqrt": 2924,
      "rc": 2925,
      "auth": 2926,
      "Ġtkinter": 2927,
      "ĠID": 2928,
      "Ġ1000": 2929,
      "eni": 2930,
      "Ġpart": 2931,
      "Ġedit": 2932,
      "any": 2933,
      "diff": 2934,
      "âĢ": 2935,
      "tial": 2936,
      "();\\": 2937,
      "feature": 2938,
      "findall": 2939,
      "println": 2940,
      "42": 2941,
      "Ġprices": 2942,
      "Ġretrieve": 2943,
      "Ġisinstance": 2944,
      "Ġanaly": 2945,
      "Ġcursor": 2946,
      "frequency": 2947,
      "monstrate": 2948,
      "NB": 2949,
      "ees": 2950,
      "sleep": 2951,
      "tra": 2952,
      "Ġfit": 2953,
      "loop": 2954,
      "npy": 2955,
      "grade": 2956,
      "except": 2957,
      "Ġparameter": 2958,
      "ules": 2959,
      "optim": 2960,
      "Forest": 2961,
      "pus": 2962,
      "insert": 2963,
      "tes": 2964,
      "npredi": 2965,
      "ically": 2966,
      "Ġnamed": 2967,
      "loyees": 2968,
      "customer": 2969,
      "roll": 2970,
      "pping": 2971,
      "ily": 2972,
      "ared": 2973,
      "encry": 2974,
      "ans": 2975,
      "Ġalready": 2976,
      "typ": 2977,
      "ĠHow": 2978,
      "lis": 2979,
      "Ġfrequent": 2980,
      ":%": 2981,
      "ech": 2982,
      "Ġfox": 2983,
      "Ġrev": 2984,
      "Ġbrown": 2985,
      "ĠNumber": 2986,
      "Ġattributes": 2987,
      "Of": 2988,
      "Ġimp": 2989,
      "Ġissue": 2990,
      "AM": 2991,
      "average": 2992,
      "nmax": 2993,
      "world": 2994,
      "{\"": 2995,
      "Ġ,": 2996,
      "Ġwin": 2997,
      "Ġanswer": 2998,
      "rin": 2999,
      "tten": 3000,
      "resh": 3001,
      "coding": 3002,
      "ĠFa": 3003,
      "Ġcomplex": 3004,
      "strip": 3005,
      "amount": 3006,
      "binary": 3007,
      "Ġ19": 3008,
      "Ġappear": 3009,
      "Ġprimes": 3010,
      "ek": 3011,
      "Ġraise": 3012,
      "Ġ80": 3013,
      "ĠCountVectorizer": 3014,
      "spe": 3015,
      "win": 3016,
      "level": 3017,
      "entry": 3018,
      "Ġchat": 3019,
      "Model": 3020,
      "den": 3021,
      "dog": 3022,
      "Ġ@": 3023,
      "idf": 3024,
      "Ġdec": 3025,
      "teger": 3026,
      "phone": 3027,
      "Ġbutton": 3028,
      "Ġgraph": 3029,
      "\".\\": 3030,
      "'}\\": 3031,
      "LL": 3032,
      "SV": 3033,
      "wargs": 3034,
      "Ġsend": 3035,
      "month": 3036,
      "\"))\\": 3037,
      "Ne": 3038,
      "nword": 3039,
      "Ġag": 3040,
      "Ġmod": 3041,
      "Ġ18": 3042,
      "irtual": 3043,
      "Ġwhat": 3044,
      "ĠName": 3045,
      "poch": 3046,
      "Ġfilename": 3047,
      "21": 3048,
      "sm": 3049,
      "stamp": 3050,
      "attr": 3051,
      "img": 3052,
      "zero": 3053,
      "ticles": 3054,
      "ĠValue": 3055,
      "Ġoperations": 3056,
      "]])\\": 3057,
      "inomial": 3058,
      "Ġcreating": 3059,
      "Ġregression": 3060,
      "eline": 3061,
      "iled": 3062,
      "Ġsmtplib": 3063,
      "Hand": 3064,
      "Ġsteps": 3065,
      "Ġfalse": 3066,
      "Ġdictionaries": 3067,
      "Ġbelow": 3068,
      "Ġnecessary": 3069,
      "Ġcustomers": 3070,
      "ql": 3071,
      "inally": 3072,
      "ensor": 3073,
      "Ġsure": 3074,
      "mployee": 3075,
      "ĠPerson": 3076,
      "ances": 3077,
      "child": 3078,
      "Dict": 3079,
      "salary": 3080,
      "frequent": 3081,
      "ĠSequential": 3082,
      "Ġuppercase": 3083,
      "uffle": 3084,
      "nB": 3085,
      "ayes": 3086,
      "Ġauthor": 3087,
      "Ġduplicate": 3088,
      "group": 3089,
      "enium": 3090,
      "ert": 3091,
      "Ġ''": 3092,
      "Ġ24": 3093,
      "ĠLogistic": 3094,
      "ND": 3095,
      "balance": 3096,
      "Ġcounter": 3097,
      "categor": 3098,
      "ultip": 3099,
      "description": 3100,
      "ĠProgram": 3101,
      "Ġvisited": 3102,
      "Ġinitialize": 3103,
      "sity": 3104,
      "Ġtokens": 3105,
      "fied": 3106,
      "New": 3107,
      "SER": 3108,
      "SELECT": 3109,
      "nos": 3110,
      "ader": 3111,
      "ncor": 3112,
      "access": 3113,
      "column": 3114,
      "rehen": 3115,
      "Ġ'/": 3116,
      "author": 3117,
      "bove": 3118,
      "Ġaxis": 3119,
      "entropy": 3120,
      "over": 3121,
      "your": 3122,
      "stand": 3123,
      "Ġty": 3124,
      "Ġgcd": 3125,
      "Ġdog": 3126,
      "digit": 3127,
      "Ġdevelop": 3128,
      "]))": 3129,
      "secre": 3130,
      "pair": 3131,
      "Ġspecial": 3132,
      "Ġdifference": 3133,
      "Blob": 3134,
      "ales": 3135,
      "lists": 3136,
      ".\"\"\"\\": 3137,
      "cra": 3138,
      "ift": 3139,
      "Ġfiltered": 3140,
      "Ġdescription": 3141,
      "HT": 3142,
      "Ġefficient": 3143,
      "Ġconcaten": 3144,
      "pack": 3145,
      "Ġcomprehen": 3146,
      "ĠRandomForest": 3147,
      "*(": 3148,
      "Time": 3149,
      "pdate": 3150,
      "rating": 3151,
      "arks": 3152,
      "sim": 3153,
      "Ġerrors": 3154,
      "Ġaudio": 3155,
      "Code": 3156,
      "UT": 3157,
      "secret": 3158,
      "Use": 3159,
      "erform": 3160,
      "Ġbubble": 3161,
      "Count": 3162,
      "Ġqueue": 3163,
      "Ġvirtual": 3164,
      "Ġstand": 3165,
      "types": 3166,
      "Index": 3167,
      "Ġtuple": 3168,
      "nr": 3169,
      "Ġ\"\\": 3170,
      "make": 3171,
      "ours": 3172,
      "ntry": 3173,
      "login": 3174,
      "vowels": 3175,
      "Ġfont": 3176,
      "lip": 3177,
      "urtle": 3178,
      "Ġmust": 3179,
      "Ġarticle": 3180,
      "Ġmetrics": 3181,
      "atural": 3182,
      "Ġgrade": 3183,
      "typewrite": 3184,
      "'}": 3185,
      "sca": 3186,
      "source": 3187,
      "Ġnth": 3188,
      "Ġnow": 3189,
      "ank": 3190,
      "Ġoccurrences": 3191,
      "Ġsymb": 3192,
      "Ġmissing": 3193,
      "33": 3194,
      "nre": 3195,
      "nstr": 3196,
      "Ġcar": 3197,
      "Ġins": 3198,
      "uess": 3199,
      "commit": 3200,
      "Ġemails": 3201,
      "br": 3202,
      "href": 3203,
      "iris": 3204,
      "Ġhttp": 3205,
      "Ġext": 3206,
      "ĠPre": 3207,
      "Ġweights": 3208,
      "span": 3209,
      "By": 3210,
      "No": 3211,
      "mode": 3212,
      "pip": 3213,
      "Ġabove": 3214,
      "Ġdiff": 3215,
      "anagram": 3216,
      "ĠTextBlob": 3217,
      "tp": 3218,
      "Ġaction": 3219,
      "Ġcity": 3220,
      "Ġcircle": 3221,
      "Ġclus": 3222,
      "dest": 3223,
      "Ġevaluate": 3224,
      "nsorted": 3225,
      "Ġ{}\".": 3226,
      "trans": 3227,
      "Ġbooks": 3228,
      "Ġrate": 3229,
      "Ġcondition": 3230,
      "uding": 3231,
      "Prime": 3232,
      "Type": 3233,
      "ping": 3234,
      "ĠAS": 3235,
      "Ġarrays": 3236,
      "Ġbefore": 3237,
      "Ġ},\\": 3238,
      "localhost": 3239,
      "mensional": 3240,
      ":]": 3241,
      ">>": 3242,
      "md": 3243,
      "method": 3244,
      "Ġ17": 3245,
      "weather": 3246,
      "oolean": 3247,
      "nconst": 3248,
      "Ġregular": 3249,
      "=[": 3250,
      "Word": 3251,
      "lag": 3252,
      "ultinomial": 3253,
      "ĠFile": 3254,
      "ariable": 3255,
      "Ġlines": 3256,
      "sseract": 3257,
      "Ġps": 3258,
      "Ġaccept": 3259,
      "Ġq": 3260,
      "Ġrepe": 3261,
      "Ġlambda": 3262,
      "Ġfast": 3263,
      "Ġsuccess": 3264,
      "Ġmiddle": 3265,
      "Ġmanage": 3266,
      "ground": 3267,
      "Fibonacci": 3268,
      "folder": 3269,
      "Ġ)\\": 3270,
      "default": 3271,
      "Ġ21": 3272,
      "__\":\\": 3273,
      "Ġadding": 3274,
      "Ġoutputs": 3275,
      "Ġservice": 3276,
      "man": 3277,
      "nnumbers": 3278,
      "Ġloss": 3279,
      "Ġexists": 3280,
      "ĠLogisticRegression": 3281,
      "?,": 3282,
      "CH": 3283,
      "nrandom": 3284,
      "Ġ14": 3285,
      "Ġ28": 3286,
      "ĠAn": 3287,
      "vious": 3288,
      "ĠWindows": 3289,
      "Ġlimit": 3290,
      "ĠReturns": 3291,
      "Ġvectorizer": 3292,
      "EST": 3293,
      "ĠImport": 3294,
      "ecause": 3295,
      "Ġjob": 3296,
      "1000": 3297,
      "Ġlogging": 3298,
      "Ġmatches": 3299,
      "!'\\": 3300,
      ")/": 3301,
      ".__": 3302,
      "User": 3303,
      "how": 3304,
      "Ġhttps": 3305,
      "cho": 3306,
      "Ġvalidate": 3307,
      "asing": 3308,
      "nsentence": 3309,
      "Ġjust": 3310,
      "Ġleast": 3311,
      "ftware": 3312,
      "Ġproducts": 3313,
      "Ġlogic": 3314,
      "Handler": 3315,
      "Ġimg": 3316,
      "ĠMultinomial": 3317,
      "Ġappro": 3318,
      "ĠUser": 3319,
      "tokens": 3320,
      "Ġhandling": 3321,
      "456": 3322,
      "Ġcomprehension": 3323,
      "gmail": 3324,
      "mer": 3325,
      "tor": 3326,
      "alf": 3327,
      "ĠCh": 3328,
      "days": 3329,
      "nnew": 3330,
      "tup": 3331,
      "elcome": 3332,
      "dient": 3333,
      "endar": 3334,
      "quencies": 3335,
      "\");\\": 3336,
      "Ġemployee": 3337,
      "Ġsquares": 3338,
      "'],\\": 3339,
      "::": 3340,
      "AP": 3341,
      "Num": 3342,
      "iloc": 3343,
      "orange": 3344,
      "Ġtransform": 3345,
      "ĠSentiment": 3346,
      "Ġkeyword": 3347,
      "Ġexecute": 3348,
      "17": 3349,
      "wait": 3350,
      "Ġreal": 3351,
      "heap": 3352,
      "ĠNOT": 3353,
      "negative": 3354,
      "ntotal": 3355,
      "ĠHTTP": 3356,
      "nconsole": 3357,
      "Ġoperation": 3358,
      "Ġsomething": 3359,
      "nWHERE": 3360,
      "():": 3361,
      "Au": 3362,
      "ron": 3363,
      "tools": 3364,
      "Ġexception": 3365,
      "Ġauth": 3366,
      "Ġencrypted": 3367,
      "gen": 3368,
      "inf": 3369,
      "Ġsentences": 3370,
      "Ġtasks": 3371,
      "math": 3372,
      "Ġstop": 3373,
      "parate": 3374,
      "Ġlazy": 3375,
      "Ġuntil": 3376,
      "arge": 3377,
      "Ġbecause": 3378,
      "Ġoption": 3379,
      "\":\"": 3380,
      "Ġdescending": 3381,
      "pochs": 3382,
      "button": 3383,
      "Ġscores": 3384,
      "adam": 3385,
      "inder": 3386,
      "ĠDec": 3387,
      "mbed": 3388,
      "ĠArray": 3389,
      "structor": 3390,
      "EX": 3391,
      "client": 3392,
      "dev": 3393,
      "copy": 3394,
      "cast": 3395,
      "Ġprovide": 3396,
      "\"])\\": 3397,
      "kit": 3398,
      "language": 3399,
      "Ġclean": 3400,
      "decode": 3401,
      "Ġmana": 3402,
      "Ġvideo": 3403,
      "vies": 3404,
      "tend": 3405,
      "plain": 3406,
      "ĉĉĉ": 3407,
      "ĠYork": 3408,
      "Ġsyntax": 3409,
      "](": 3410,
      "Ġ60": 3411,
      "}\")\\": 3412,
      "Ġclasses": 3413,
      "dist": 3414,
      "nStep": 3415,
      "dumps": 3416,
      "mble": 3417,
      "pto": 3418,
      "Ġlayer": 3419,
      "nimal": 3420,
      "Ġlocation": 3421,
      "Ġwhite": 3422,
      "Ġprediction": 3423,
      "????": 3424,
      "Ġcombinations": 3425,
      "Ġgroup": 3426,
      "hotkey": 3427,
      "ĠMultinomialNB": 3428,
      "He": 3429,
      "tesseract": 3430,
      "ything": 3431,
      "Ġdownload": 3432,
      "Ġknow": 3433,
      "caler": 3434,
      "Analyzer": 3435,
      "Ġchatbot": 3436,
      "'{": 3437,
      "Check": 3438,
      "DF": 3439,
      "limit": 3440,
      "nimage": 3441,
      "Ġlook": 3442,
      "Ġchild": 3443,
      "ĠExtract": 3444,
      "ĠMe": 3445,
      "ized": 3446,
      "weight": 3447,
      "Ġcreates": 3448,
      "Ġchars": 3449,
      "Ġavai": 3450,
      "Ġclosest": 3451,
      "twe": 3452,
      "ider": 3453,
      "ĠAl": 3454,
      "ĠBuild": 3455,
      "Ġcomb": 3456,
      "predi": 3457,
      "ĠConvert": 3458,
      "Ġplace": 3459,
      "Ġalphabetical": 3460,
      "drop": 3461,
      "high": 3462,
      "ux": 3463,
      "annel": 3464,
      "vices": 3465,
      "cording": 3466,
      "'''\\": 3467,
      "#!": 3468,
      "punctuation": 3469,
      "Ġelem": 3470,
      "ceiv": 3471,
      "ĠDjango": 3472,
      "Invalid": 3473,
      "Ġunderstand": 3474,
      "cv": 3475,
      "png": 3476,
      "uc": 3477,
      "Ġeas": 3478,
      "Ġrot": 3479,
      "EY": 3480,
      "Fa": 3481,
      "fetch": 3482,
      "vate": 3483,
      "tead": 3484,
      "debug": 3485,
      "dim": 3486,
      "sktop": 3487,
      "Ġincluding": 3488,
      "optimizer": 3489,
      "87": 3490,
      "ale": 3491,
      "cross": 3492,
      "install": 3493,
      "ĠPIL": 3494,
      "Ġgender": 3495,
      "Ġcopy": 3496,
      "tensity": 3497,
      "ness": 3498,
      "Ġtesting": 3499,
      "lobal": 3500,
      "Ġexisting": 3501,
      "draw": 3502,
      "Ġclf": 3503,
      "Ġflatten": 3504,
      "else": 3505,
      "dified": 3506,
      "dimensional": 3507,
      "ested": 3508,
      "ĠFernet": 3509,
      "audio": 3510,
      "Ġfactors": 3511,
      "200": 3512,
      "med": 3513,
      "ĠDense": 3514,
      "Ġpyglet": 3515,
      "Ġwritten": 3516,
      "Ġrecords": 3517,
      "monstrates": 3518,
      ":]\\": 3519,
      "Str": 3520,
      "wiki": 3521,
      "xy": 3522,
      "Ġnormalize": 3523,
      "rove": 3524,
      "usr": 3525,
      "ective": 3526,
      "Ġ45": 3527,
      "rypto": 3528,
      "\"\"": 3529,
      ")[": 3530,
      "Input": 3531,
      "Ġ\"+": 3532,
      "Ġlengths": 3533,
      "axis": 3534,
      "Ġnumerical": 3535,
      "ara": 3536,
      "spec": 3537,
      "Ġcapitalize": 3538,
      "Ġhist": 3539,
      "ĠStudent": 3540,
      "nYes": 3541,
      "All": 3542,
      "Test": 3543,
      "Ġcell": 3544,
      "Ġ'''": 3545,
      "users": 3546,
      "ĠCelsius": 3547,
      "Ġdetails": 3548,
      "Ġhost": 3549,
      "Ġstores": 3550,
      "`\\": 3551,
      "Ġdriver": 3552,
      "hash": 3553,
      "Intensity": 3554,
      "Ġspaces": 3555,
      "Ġsmall": 3556,
      "Ġtuples": 3557,
      "Ġstandard": 3558,
      "Ġavailable": 3559,
      "#!/": 3560,
      "+=": 3561,
      "PE": 3562,
      "ictionary": 3563,
      "script": 3564,
      "Ġpur": 3565,
      "Ġepochs": 3566,
      "verted": 3567,
      "ĠNo": 3568,
      "ĠLe": 3569,
      "vide": 3570,
      "player": 3571,
      "Ġaddition": 3572,
      "Ġallows": 3573,
      "celsius": 3574,
      "Ġcontin": 3575,
      "ĠRandomForestClassifier": 3576,
      "IntensityAnalyzer": 3577,
      "Al": 3578,
      "ia": 3579,
      "lation": 3580,
      "pacity": 3581,
      "pose": 3582,
      "Ġnodes": 3583,
      "Ġrequire": 3584,
      "Modify": 3585,
      "Ġsupport": 3586,
      ".'\\": 3587,
      "car": 3588,
      "Ġ:\\": 3589,
      "olve": 3590,
      "numer": 3591,
      "idget": 3592,
      "sired": 3593,
      "Ġpos": 3594,
      "Ġsubtract": 3595,
      "Ġtrying": 3596,
      "Ġdivide": 3597,
      "ĠSentimentIntensityAnalyzer": 3598,
      "Ġ23": 3599,
      "ĠĠĠĠĠĠĠĠĠĠĠĠ": 3600,
      "sumer": 3601,
      "Ġsorts": 3602,
      "Ġquicksort": 3603,
      "Ġtermin": 3604,
      "ĠValueError": 3605,
      "40": 3606,
      "DO": 3607,
      "gn": 3608,
      "ures": 3609,
      "rant": 3610,
      "Ġlate": 3611,
      "Ġchoice": 3612,
      "ĠFahrenheit": 3613,
      "\"))": 3614,
      "pri": 3615,
      "Ġour": 3616,
      "ordin": 3617,
      "ĠCSV": 3618,
      "ople": 3619,
      "weights": 3620,
      "Ġwebpage": 3621,
      "Ġwebdriver": 3622,
      "Ġprocessing": 3623,
      "position": 3624,
      "55": 3625,
      "strong": 3626,
      "hed": 3627,
      "Ġlevel": 3628,
      "Ġwebbrowser": 3629,
      ")**": 3630,
      "Le": 3631,
      "We": 3632,
      "module": 3633,
      "px": 3634,
      "ertain": 3635,
      "ĠPo": 3636,
      "Ġdataframe": 3637,
      "Ġaccording": 3638,
      "Ġimages": 3639,
      "Ġencrypt": 3640,
      "Ġapproach": 3641,
      "Ġdoc": 3642,
      "Ġtwee": 3643,
      "extraction": 3644,
      "nOutput": 3645,
      "Ġdepend": 3646,
      "positive": 3647,
      "func": 3648,
      "google": 3649,
      "kwargs": 3650,
      "Ġsign": 3651,
      "Ġfinal": 3652,
      "Ġvar": 3653,
      "swith": 3654,
      "ncorrect": 3655,
      "crossentropy": 3656,
      "Ġtweepy": 3657,
      ",\"": 3658,
      "reet": 3659,
      "ndriver": 3660,
      "Ġbatch": 3661,
      "Ġ[(": 3662,
      "Ġgenerates": 3663,
      "files": 3664,
      "rameters": 3665,
      "ĠĠĠĠĠĠĠĠĠĠĠĠĠĠĠĠĠĠĠĠĠĠĠĠĠĠĠ": 3666,
      "Ġscal": 3667,
      "Ġtraverse": 3668,
      "filter": 3669,
      "================================": 3670,
      "Ġindices": 3671,
      "'))": 3672,
      "sys": 3673,
      "tom": 3674,
      "Ġcourse": 3675,
      "Ġengine": 3676,
      "uper": 3677,
      "Ġappend": 3678,
      "ĠUsed": 3679,
      "zeros": 3680,
      "chedule": 3681,
      "task": 3682,
      "ĠParse": 3683,
      "Ġwho": 3684,
      "Ġclassification": 3685,
      "Ġprevious": 3686,
      "Ġcontents": 3687,
      "Ġdesign": 3688,
      "ABLE": 3689,
      "Ġrecursive": 3690,
      "-]+": 3691,
      "60": 3692,
      "CK": 3693,
      "prices": 3694,
      "push": 3695,
      "ĠPerform": 3696,
      "hex": 3697,
      "Ġview": 3698,
      "Ġbeing": 3699,
      "aurant": 3700,
      "Ġaccount": 3701,
      "template": 3702,
      "latform": 3703,
      "(*": 3704,
      "Ġke": 3705,
      "Ġ'-": 3706,
      "Ġgood": 3707,
      "Ġ22": 3708,
      "ĠFit": 3709,
      "Ġdel": 3710,
      "ache": 3711,
      "Ġ90": 3712,
      "lowercase": 3713,
      "Ġvisu": 3714,
      "REATE": 3715,
      "MTP": 3716,
      "nexcept": 3717,
      "stock": 3718,
      "Ġpush": 3719,
      "Ġrecom": 3720,
      "median": 3721,
      "Ġusage": 3722,
      "pture": 3723,
      "ped": 3724,
      "Ġweight": 3725,
      "Ġfolder": 3726,
      "Ġfields": 3727,
      "ĠWeb": 3728,
      "Ġanalyze": 3729,
      "Ġ'''\\": 3730,
      "22": 3731,
      "Calculate": 3732,
      "Rewrite": 3733,
      "Ġnatural": 3734,
      "secu": 3735,
      "ason": 3736,
      "Column": 3737,
      "LO": 3738,
      "Label": 3739,
      "foo": 3740,
      "stop": 3741,
      "Ġrect": 3742,
      "ither": 3743,
      "Ġcontext": 3744,
      "imize": 3745,
      "Ġendpoint": 3746,
      "Ġlis": 3747,
      "#\\": 3748,
      "At": 3749,
      "Py": 3750,
      "ftime": 3751,
      "ylabel": 3752,
      "Ġapi": 3753,
      "Ġplay": 3754,
      "Ġold": 3755,
      "Ġselenium": 3756,
      "Ġspace": 3757,
      "18": 3758,
      "lated": 3759,
      "ndard": 3760,
      "Ġ\".": 3761,
      "ĠCreating": 3762,
      "Ġdesktop": 3763,
      "database": 3764,
      "pedia": 3765,
      "soft": 3766,
      "ĠException": 3767,
      "Ġperformance": 3768,
      "bability": 3769,
      "tertools": 3770,
      "enerator": 3771,
      "Ġreport": 3772,
      "Ġstatus": 3773,
      "Ġ255": 3774,
      "ĠDataFrame": 3775,
      "Ġavg": 3776,
      "Ġencoded": 3777,
      "polarity": 3778,
      "can": 3779,
      "gender": 3780,
      "inct": 3781,
      "this": 3782,
      "Ġslow": 3783,
      "Ġprin": 3784,
      "rol": 3785,
      "alendar": 3786,
      "Ġdest": 3787,
      "ĠMain": 3788,
      "255": 3789,
      "alization": 3790,
      "Ġmemory": 3791,
      "Ġinstead": 3792,
      "Incorrect": 3793,
      "xlabel": 3794,
      "Ġregex": 3795,
      "omin": 3796,
      "package": 3797,
      "Ġdesired": 3798,
      "plays": 3799,
      "links": 3800,
      "Ġtrack": 3801,
      "ĠLoop": 3802,
      "click": 3803,
      "do": 3804,
      "go": 3805,
      "nT": 3806,
      "ĠSV": 3807,
      "Ġjo": 3808,
      "command": 3809,
      "'),": 3810,
      "Ġchecking": 3811,
      "\").": 3812,
      "nwindow": 3813,
      "Ġseconds": 3814,
      "Ġattribute": 3815,
      "Ġmodules": 3816,
      "\";\\": 3817,
      "'})\\": 3818,
      "Add": 3819,
      "nhtml": 3820,
      "ways": 3821,
      "limi": 3822,
      "Ġdjango": 3823,
      "Ġboolean": 3824,
      "vers": 3825,
      "Ġseparate": 3826,
      "quences": 3827,
      "([\"": 3828,
      "peri": 3829,
      "Ġassign": 3830,
      "secutive": 3831,
      "Alice": 3832,
      "Com": 3833,
      "seq": 3834,
      "Ġconnect": 3835,
      "Ġbegin": 3836,
      "ĠEmployee": 3837,
      "']['": 3838,
      "maining": 3839,
      "Ġmany": 3840,
      "mission": 3841,
      "style": 3842,
      "Ġfine": 3843,
      "chase": 3844,
      "ĠTABLE": 3845,
      "Ġcreated": 3846,
      "Ġstarting": 3847,
      "Ġdocuments": 3848,
      "Ġappears": 3849,
      "Ġagain": 3850,
      "Suggest": 3851,
      "fer": 3852,
      "nkey": 3853,
      "Ġ]\\": 3854,
      "ince": 3855,
      "Ġrecogni": 3856,
      "metrics": 3857,
      "loss": 3858,
      "Ġ->": 3859,
      "Ġconverts": 3860,
      "chema": 3861,
      "--------------------------------": 3862,
      "65": 3863,
      "Mon": 3864,
      "];": 3865,
      "nth": 3866,
      "ented": 3867,
      "ively": 3868,
      "occur": 3869,
      "Ġpygame": 3870,
      "Ġdisplays": 3871,
      "Ġtitles": 3872,
      "mbedding": 3873,
      "Ġproces": 3874,
      "aster": 3875,
      "ĠXML": 3876,
      "Ġswap": 3877,
      "ĠHowever": 3878,
      "($": 3879,
      "23": 3880,
      "URL": 3881,
      "strftime": 3882,
      "Ġbalance": 3883,
      "ids": 3884,
      "Ġparent": 3885,
      "Ġsubstrings": 3886,
      "Ġparagraph": 3887,
      "Apple": 3888,
      "For": 3889,
      "]{": 3890,
      "download": 3891,
      "hone": 3892,
      "hist": 3893,
      "ars": 3894,
      "Ġfinding": 3895,
      "Ġcomponent": 3896,
      "Ġmanaging": 3897,
      "\\.": 3898,
      "ele": 3899,
      "elem": 3900,
      "mith": 3901,
      "off": 3902,
      "qr": 3903,
      "sure": 3904,
      "Ġremo": 3905,
      "ĠTra": 3906,
      "Ġasync": 3907,
      "ncy": 3908,
      "ĠNU": 3909,
      "ĠRes": 3910,
      "ĠModel": 3911,
      "ĠJohn": 3912,
      "means": 3913,
      "Ġgreatest": 3914,
      "Ġhashlib": 3915,
      ":\")\\": 3916,
      "DE": 3917,
      "Item": 3918,
      "mber": 3919,
      "Ġable": 3920,
      "less": 3921,
      "tific": 3922,
      "Ġcontact": 3923,
      "option": 3924,
      "reader": 3925,
      "Ġintersection": 3926,
      "'.\\": 3927,
      "-\\": 3928,
      "IST": 3929,
      "call": 3930,
      "fidf": 3931,
      "ntime": 3932,
      "record": 3933,
      "Ġinser": 3934,
      "lack": 3935,
      "ĠBY": 3936,
      "vectorizer": 3937,
      "reshold": 3938,
      "OP": 3939,
      "card": 3940,
      "efficient": 3941,
      "eratures": 3942,
      "article": 3943,
      "Ġguess": 3944,
      "roman": 3945,
      "male": 3946,
      "Ġabs": 3947,
      "Ġimplements": 3948,
      "uppercase": 3949,
      "ruit": 3950,
      "Ġtech": 3951,
      "datasets": 3952,
      "Ġthreading": 3953,
      "Download": 3954,
      "Mat": 3955,
      "nv": 3956,
      "part": 3957,
      "Ġzero": 3958,
      "Ġcertain": 3959,
      "Ġpe": 3960,
      "round": 3961,
      "Ġ\")": 3962,
      "Ġlarge": 3963,
      "Ġ26": 3964,
      "Ġencoding": 3965,
      "primes": 3966,
      "Ġparams": 3967,
      "\"{": 3968,
      "UP": 3969,
      "wd": 3970,
      "Ġtools": 3971,
      "Ġarticles": 3972,
      "Ġgenerated": 3973,
      "ĠUni": 3974,
      "Ġminutes": 3975,
      "preprocessing": 3976,
      "Numbers": 3977,
      "Ġadj": 3978,
      "Ġchanges": 3979,
      "Ġgreat": 3980,
      "depth": 3981,
      "ominator": 3982,
      "dot": 3983,
      "zA": 3984,
      "eries": 3985,
      "decimal": 3986,
      "alpha": 3987,
      "Ġdon": 3988,
      "Ġ'\\": 3989,
      "npro": 3990,
      "veral": 3991,
      "Ġjumps": 3992,
      "ĠUpdate": 3993,
      "msg": 3994,
      "Ġround": 3995,
      "Ġheader": 3996,
      "Ġspam": 3997,
      "Date": 3998,
      "NN": 3999,
      "UI": 4000,
      "`.\\": 4001,
      "Ġdone": 4002,
      "ĠInc": 4003,
      "program": 4004,
      "Ġmodify": 4005,
      "Open": 4006,
      "character": 4007,
      "ĠLinked": 4008,
      "Ġcontinue": 4009,
      "nP": 4010,
      "nor": 4011,
      "njson": 4012,
      "rection": 4013,
      "Ġthird": 4014,
      "rase": 4015,
      "Ġinv": 4016,
      "utral": 4017,
      "loud": 4018,
      "Ġselection": 4019,
      "Ġhello": 4020,
      "Ġchart": 4021,
      "'),\\": 4022,
      "Ġemployees": 4023,
      "params": 4024,
      "isionTree": 4025,
      "Ġcategories": 4026,
      "ĠStandard": 4027,
      "Ġdecision": 4028,
      "mun": 4029,
      "mstrong": 4030,
      "nend": 4031,
      "nnums": 4032,
      "three": 4033,
      "atter": 4034,
      "Ġreduce": 4035,
      "Ġyield": 4036,
      "ncv": 4037,
      "Ġseveral": 4038,
      "Ġnews": 4039,
      "Ġstudents": 4040,
      "Ġscipy": 4041,
      "Ġtweet": 4042,
      "Ġcluster": 4043,
      "={": 4044,
      "Scaler": 4045,
      "Ġnull": 4046,
      "Ġeither": 4047,
      "Ġ\"<": 4048,
      "olution": 4049,
      "ĠThen": 4050,
      "idual": 4051,
      "headers": 4052,
      "fully": 4053,
      "columns": 4054,
      "ĠQu": 4055,
      "Ġterms": 4056,
      "################################": 4057,
      "Row": 4058,
      "action": 4059,
      "bit": 4060,
      "pdf": 4061,
      "reen": 4062,
      "Ġflag": 4063,
      "Ġrest": 4064,
      "Ġnested": 4065,
      "light": 4066,
      "Ġtool": 4067,
      "npage": 4068,
      "Ġsepara": 4069,
      "ustomers": 4070,
      "128": 4071,
      "Ġinterpre": 4072,
      "istics": 4073,
      "isionTreeClassifier": 4074,
      "nname": 4075,
      "ination": 4076,
      "Ġparser": 4077,
      "Ġet": 4078,
      "Ġdown": 4079,
      "Ġrating": 4080,
      "udo": 4081,
      "Ġimplementation": 4082,
      "Ġalphabet": 4083,
      "35": 4084,
      "Case": 4085,
      "down": 4086,
      "ire": 4087,
      "mar": 4088,
      "ogram": 4089,
      "Ġcard": 4090,
      "Ġstep": 4091,
      "Ġfunc": 4092,
      "Ġpl": 4093,
      "riend": 4094,
      "ssors": 4095,
      "nique": 4096,
      "ĠCSS": 4097,
      "ysql": 4098,
      "submit": 4099,
      "Ġautomate": 4100,
      "Ġkeep": 4101,
      "){\\": 4102,
      "API": 4103,
      "equ": 4104,
      "ernel": 4105,
      "session": 4106,
      "Ġtoday": 4107,
      "change": 4108,
      "ister": 4109,
      "reshape": 4110,
      "'])": 4111,
      "fahrenheit": 4112,
      "Ġdivisor": 4113,
      "Ġbackground": 4114,
      ",-": 4115,
      "Ad": 4116,
      "document": 4117,
      "nl": 4118,
      "rency": 4119,
      "ropo": 4120,
      "rib": 4121,
      "Ġ'))\\": 4122,
      "itor": 4123,
      "();": 4124,
      "sitive": 4125,
      "ĠDis": 4126,
      "mented": 4127,
      "SERT": 4128,
      "Ġsymbols": 4129,
      "CO": 4130,
      "mend": 4131,
      "wh": 4132,
      "ĠCol": 4133,
      "Ġ35": 4134,
      "Ġxml": 4135,
      "256": 4136,
      "argv": 4137,
      "Message": 4138,
      "Ġoptimized": 4139,
      "Ġeverything": 4140,
      "Ġoptimizer": 4141,
      "Ġterminal": 4142,
      "ropout": 4143,
      "DB": 4144,
      "GER": 4145,
      "ian": 4146,
      "nop": 4147,
      "ring": 4148,
      "retrieve": 4149,
      "Ġcraw": 4150,
      "ival": 4151,
      "dif": 4152,
      "ĠSw": 4153,
      "irc": 4154,
      "Ġsession": 4155,
      "Ġhref": 4156,
      "Ġshor": 4157,
      "temperature": 4158,
      "Ġlanguages": 4159,
      "listen": 4160,
      "nreturn": 4161,
      "ĠZ": 4162,
      "Ġsent": 4163,
      "del": 4164,
      "Ġturtle": 4165,
      "Ġreview": 4166,
      "Ġremaining": 4167,
      "Ġmen": 4168,
      "ish": 4169,
      "directory": 4170,
      "Ġalways": 4171,
      "ĠSci": 4172,
      "ĠRun": 4173,
      "ĠMo": 4174,
      "ĠMath": 4175,
      "nelif": 4176,
      "Ġcomma": 4177,
      "Ġsubset": 4178,
      "Ġapply": 4179,
      "Ġprefix": 4180,
      "Ġheaders": 4181,
      "creen": 4182,
      "Ġpopulation": 4183,
      "ĠMySQL": 4184,
      "ALU": 4185,
      "Pool": 4186,
      "Or": 4187,
      "Welcome": 4188,
      "calculate": 4189,
      "narray": 4190,
      "src": 4191,
      "wri": 4192,
      "zing": 4193,
      "termin": 4194,
      "Ġlocal": 4195,
      "Ġhex": 4196,
      "Ġtweets": 4197,
      "Random": 4198,
      "domain": 4199,
      "pl": 4200,
      "ured": 4201,
      "Ġcelsius": 4202,
      "Ġpas": 4203,
      "atically": 4204,
      "rot": 4205,
      "alphab": 4206,
      "Ġbar": 4207,
      "Ġ[-": 4208,
      "mag": 4209,
      "eting": 4210,
      "coder": 4211,
      "ĠSto": 4212,
      "Ġchr": 4213,
      "Ġquantity": 4214,
      "some": 4215,
      "ynam": 4216,
      "param": 4217,
      "Ġtypes": 4218,
      "AD": 4219,
      "Bob": 4220,
      "GR": 4221,
      "Qt": 4222,
      "nG": 4223,
      "Ġfore": 4224,
      "rary": 4225,
      "Ġbrowser": 4226,
      "nimg": 4227,
      "npassword": 4228,
      "mainder": 4229,
      "Ġ(\\": 4230,
      "tension": 4231,
      "ncom": 4232,
      "ĠNum": 4233,
      "Ġbox": 4234,
      "divis": 4235,
      "solute": 4236,
      "Lo": 4237,
      "fin": 4238,
      "sentences": 4239,
      "Ġfour": 4240,
      "Ġglobal": 4241,
      "Ġtags": 4242,
      "Ġweather": 4243,
      "');\\": 4244,
      "permut": 4245,
      "Ġequation": 4246,
      "Ġoptimization": 4247,
      "Ġitera": 4248,
      "inition": 4249,
      "EXT": 4250,
      "FF": 4251,
      "blob": 4252,
      "ually": 4253,
      "ink": 4254,
      "Ġsuper": 4255,
      "Ġfill": 4256,
      "Ġfive": 4257,
      "room": 4258,
      "chi": 4259,
      "itch": 4260,
      "Ġhours": 4261,
      "ĠWHERE": 4262,
      "']]\\": 4263,
      "ĠNULL": 4264,
      "44": 4265,
      "Client": 4266,
      "Print": 4267,
      "uz": 4268,
      "use": 4269,
      "Ġcrypto": 4270,
      "Ġbody": 4271,
      "ĠĠĠĠĠĠĠĠĠĠĠĠĠĠ": 4272,
      "movie": 4273,
      "urlretrieve": 4274,
      "ĠVector": 4275,
      "Means": 4276,
      "66": 4277,
      "glish": 4278,
      "js": 4279,
      "ncount": 4280,
      "Ġpad": 4281,
      "chain": 4282,
      "using": 4283,
      "pped": 4284,
      "ĠCar": 4285,
      "igmo": 4286,
      "(\"%": 4287,
      "Ġ*\\": 4288,
      "ĠREST": 4289,
      "istance": 4290,
      "ĠHello": 4291,
      "Ġfrequencies": 4292,
      "Ġheap": 4293,
      "ensemble": 4294,
      "ĠDemonstrates": 4295,
      "Ġworking": 4296,
      "Ġpackages": 4297,
      "Ġmember": 4298,
      "Ġimprove": 4299,
      "igmoid": 4300,
      "SO": 4301,
      "store": 4302,
      "npattern": 4303,
      "Ġ27": 4304,
      "Ġprinting": 4305,
      "cial": 4306,
      "exist": 4307,
      "Ġrandomly": 4308,
      "ĠWord": 4309,
      "Ġcollection": 4310,
      "Ġalgorithms": 4311,
      "pected": 4312,
      "mainloop": 4313,
      "oices": 4314,
      "ATH": 4315,
      "Ġyears": 4316,
      "expression": 4317,
      "Ġprivate": 4318,
      "npredictions": 4319,
      "encrypted": 4320,
      "ivalent": 4321,
      "75": 4322,
      "[\\": 4323,
      "bc": 4324,
      "bayes": 4325,
      "multip": 4326,
      "soup": 4327,
      "Ġge": 4328,
      "cell": 4329,
      "('.": 4330,
      "Ġconf": 4331,
      "Ġstyle": 4332,
      "Ġshell": 4333,
      "naive": 4334,
      "binations": 4335,
      "Ġequivalent": 4336,
      "sql": 4337,
      "Ġspeed": 4338,
      "Not": 4339,
      "ba": 4340,
      "nnumber": 4341,
      "yy": 4342,
      "race": 4343,
      "riate": 4344,
      "ources": 4345,
      "Ġapplic": 4346,
      "Ġrepresentation": 4347,
      "Ġprovides": 4348,
      "ncursor": 4349,
      "xyz": 4350,
      "->": 4351,
      "05": 4352,
      "Min": 4353,
      "tect": 4354,
      "Ġitertools": 4355,
      "Ġreceiv": 4356,
      "Ġoff": 4357,
      "quit": 4358,
      "ĠFirst": 4359,
      "ĠFinally": 4360,
      "series": 4361,
      "ressor": 4362,
      "Ġapprop": 4363,
      "cated": 4364,
      "Ġunit": 4365,
      "Ġdoesn": 4366,
      "Ġpsutil": 4367,
      "Make": 4368,
      "Tk": 4369,
      "block": 4370,
      "fect": 4371,
      "nlog": 4372,
      "sg": 4373,
      "ĠTfidf": 4374,
      "ĠMat": 4375,
      "ators": 4376,
      "nurllib": 4377,
      "Ġsimulate": 4378,
      "Ġpie": 4379,
      "fetchall": 4380,
      "limiter": 4381,
      "ALUES": 4382,
      "Ġappropriate": 4383,
      "Button": 4384,
      "UR": 4385,
      "gh": 4386,
      "ie": 4387,
      "oth": 4388,
      "Ġsha": 4389,
      "riteri": 4390,
      "based": 4391,
      "Ġreads": 4392,
      "corpus": 4393,
      "ĠINTO": 4394,
      "Ġauthenti": 4395,
      "ordinates": 4396,
      "28": 4397,
      "nh": 4398,
      "su": 4399,
      "sha": 4400,
      "Ġmark": 4401,
      "Ġdebug": 4402,
      "Ġsummary": 4403,
      "ĠBase": 4404,
      "Ġsoftware": 4405,
      "compound": 4406,
      "Sequential": 4407,
      "argument": 4408,
      "Ġoccurrence": 4409,
      "Ġdistrib": 4410,
      "books": 4411,
      "cer": 4412,
      "Ġentry": 4413,
      "req": 4414,
      "ĠPost": 4415,
      "heet": 4416,
      "itle": 4417,
      "Ġpromp": 4418,
      "ĠIns": 4419,
      "arest": 4420,
      "ternal": 4421,
      "Ġmodified": 4422,
      "nIf": 4423,
      "Ġposts": 4424,
      "empty": 4425,
      "categorical": 4426,
      "ĠStandardScaler": 4427,
      "29": 4428,
      "Dec": 4429,
      "Qu": 4430,
      "]})\\": 4431,
      "ak": 4432,
      "dge": 4433,
      "Ġip": 4434,
      "utor": 4435,
      "Ġ\"-": 4436,
      "options": 4437,
      "Ġcannot": 4438,
      "project": 4439,
      "Request": 4440,
      "Ġ123": 4441,
      "Ġotherwise": 4442,
      "INSERT": 4443,
      "graphy": 4444,
      "ĠLinux": 4445,
      ".*": 4446,
      "CV": 4447,
      "Jane": 4448,
      "XX": 4449,
      "Za": 4450,
      "cked": 4451,
      "capitalize": 4452,
      "engine": 4453,
      "Ġpol": 4454,
      "alk": 4455,
      "Ġ'--": 4456,
      "lab": 4457,
      "ticular": 4458,
      "ongo": 4459,
      "Ġinterface": 4460,
      "Ġdistinct": 4461,
      "Ġinitial": 4462,
      "encoded": 4463,
      "Ġstored": 4464,
      "CA": 4465,
      "SMTP": 4466,
      "ae": 4467,
      "nce": 4468,
      "uration": 4469,
      "Ġshape": 4470,
      "dered": 4471,
      "Ġ\\\\": 4472,
      "select": 4473,
      "Ġprobability": 4474,
      "ĠTree": 4475,
      "ĠSmith": 4476,
      "curr": 4477,
      "Ġmeans": 4478,
      "chemy": 4479,
      "abcdef": 4480,
      "Ġparticular": 4481,
      "Ġsimilar": 4482,
      "Ġsimilarity": 4483,
      "27": 4484,
      "Map": 4485,
      "Sorted": 4486,
      "Table": 4487,
      "bash": 4488,
      "ghi": 4489,
      "nL": 4490,
      "nin": 4491,
      "nlst": 4492,
      "sa": 4493,
      "};": 4494,
      "tio": 4495,
      "Ġcons": 4496,
      "ptr": 4497,
      "Ġ*=": 4498,
      "viation": 4499,
      "']:\\": 4500,
      "ĠVALUES": 4501,
      "spaces": 4502,
      "123456": 4503,
      "Ġetc": 4504,
      "EF": 4505,
      "napi": 4506,
      "vis": 4507,
      "}:": 4508,
      "Ġfin": 4509,
      "ump": 4510,
      "Ġ\"/": 4511,
      "nfil": 4512,
      "Ġ34": 4513,
      "Ġrespon": 4514,
      "Ġtax": 4515,
      "cip": 4516,
      "ĠNe": 4517,
      "Ġonline": 4518,
      "header": 4519,
      "Ġspecify": 4520,
      "population": 4521,
      "Ġautomatically": 4522,
      "xxxx": 4523,
      "Ġorders": 4524,
      "HTTP": 4525,
      "jk": 4526,
      "npython": 4527,
      "tn": 4528,
      "Ġact": 4529,
      "ones": 4530,
      "aris": 4531,
      "ged": 4532,
      "vec": 4533,
      "idden": 4534,
      "sist": 4535,
      "exit": 4536,
      "Ġhy": 4537,
      "alculator": 4538,
      "ĠEvaluate": 4539,
      "Ġsettings": 4540,
      "avig": 4541,
      "Ġdatasets": 4542,
      "nIt": 4543,
      "noutput": 4544,
      "Ġjoin": 4545,
      "exists": 4546,
      ")')\\": 4547,
      "AC": 4548,
      "Email": 4549,
      "Your": 4550,
      "nweb": 4551,
      "ority": 4552,
      "ĠTh": 4553,
      "Ġwhose": 4554,
      "ĠGra": 4555,
      "Ġpages": 4556,
      "Ġgradient": 4557,
      ".,": 4558,
      "Area": 4559,
      "II": 4560,
      "Server": 4561,
      "nHow": 4562,
      "oot": 4563,
      "Ġvolume": 4564,
      "has": 4565,
      "Ġ500": 4566,
      "')[": 4567,
      "2020": 4568,
      "naps": 4569,
      "Ġvalidation": 4570,
      "nOne": 4571,
      "Ġcomplete": 4572,
      "solution": 4573,
      "ssert": 4574,
      "Ġquestions": 4575,
      "ĠStack": 4576,
      "Dis": 4577,
      "OS": 4578,
      "eded": 4579,
      "iter": 4580,
      "Ġ'<": 4581,
      "ĠClass": 4582,
      "ĠSo": 4583,
      "Ġstor": 4584,
      "ublish": 4585,
      "ĠEng": 4586,
      "\\_\\_": 4587,
      "proper": 4588,
      "Ġiniti": 4589,
      "Ġzipfile": 4590,
      "Ġpermutation": 4591,
      "Ġconcatenate": 4592,
      "napsack": 4593,
      "Size": 4594,
      "]*": 4595,
      "mod": 4596,
      "Ġanimal": 4597,
      "Ġnn": 4598,
      "Ġmarks": 4599,
      "Ġgrid": 4600,
      "counter": 4601,
      "irth": 4602,
      "nFor": 4603,
      "Ġmanip": 4604,
      "arger": 4605,
      "speed": 4606,
      "Windows": 4607,
      "\\\\": 4608,
      "lm": 4609,
      "ntrain": 4610,
      "nlabel": 4611,
      "ups": 4612,
      "erry": 4613,
      "ndb": 4614,
      "Ġ(-": 4615,
      "ĠTable": 4616,
      "oose": 4617,
      "ĠGET": 4618,
      "([\\": 4619,
      "ĠKMeans": 4620,
      "Ġadded": 4621,
      "Program": 4622,
      "factorial": 4623,
      "Ġproperties": 4624,
      "Ġlatest": 4625,
      "TT": 4626,
      "bound": 4627,
      "lator": 4628,
      "sci": 4629,
      "Ġindiv": 4630,
      "ĠPand": 4631,
      "neighbors": 4632,
      "adding": 4633,
      "avg": 4634,
      "Ġreader": 4635,
      "posit": 4636,
      "Ġrecommend": 4637,
      "Function": 4638,
      "extract": 4639,
      "nan": 4640,
      "Ġachi": 4641,
      "tein": 4642,
      "Ġcalendar": 4643,
      "Ġsay": 4644,
      "delete": 4645,
      "Ġfull": 4646,
      "lected": 4647,
      "uring": 4648,
      "Ġdot": 4649,
      "Ġdomain": 4650,
      "ives": 4651,
      "ĠTensor": 4652,
      "Ġconstructor": 4653,
      "Ġdecode": 4654,
      "ĠNa": 4655,
      "Ġsubject": 4656,
      "nclassifier": 4657,
      "Ġtimestamp": 4658,
      "Ġinterest": 4659,
      "squared": 4660,
      "Ġcalculator": 4661,
      "seconds": 4662,
      "Be": 4663,
      "HP": 4664,
      "ster": 4665,
      "vant": 4666,
      "Ġterm": 4667,
      "orn": 4668,
      "ĠET": 4669,
      "Ġkeywords": 4670,
      "Ġcomputing": 4671,
      "Ġdates": 4672,
      "Ġunsorted": 4673,
      "kets": 4674,
      "Ġmessages": 4675,
      "scale": 4676,
      "End": 4677,
      "build": 4678,
      "naccuracy": 4679,
      "tk": 4680,
      "vm": 4681,
      "release": 4682,
      "lex": 4683,
      "ĠPa": 4684,
      "elper": 4685,
      "arry": 4686,
      "inputs": 4687,
      "Ġattr": 4688,
      "Ġscreen": 4689,
      "Ġalphabets": 4690,
      "ĠSearch": 4691,
      "Ġcombination": 4692,
      "square": 4693,
      "Ġpipeline": 4694,
      "Ġapplications": 4695,
      "Ġachieve": 4696,
      ")//": 4697,
      "It": 4698,
      "Sta": 4699,
      "_='": 4700,
      "cc": 4701,
      "ptime": 4702,
      "('\\": 4703,
      "Ġcoding": 4704,
      "racted": 4705,
      "Ġlove": 4706,
      "urls": 4707,
      "Ġpytesseract": 4708,
      "expr": 4709,
      "cluster": 4710,
      "smtp": 4711,
      "ĠDecisionTreeClassifier": 4712,
      "Ġprinted": 4713,
      "?:": 4714,
      "Us": 4715,
      "aded": 4716,
      "cing": 4717,
      "Ġclick": 4718,
      "Ġreviews": 4719,
      "Ġbin": 4720,
      "Ġstream": 4721,
      "Ġexit": 4722,
      "oper": 4723,
      "setup": 4724,
      "Ġsetup": 4725,
      "Ġshuffle": 4726,
      "Ġadds": 4727,
      "Ġpeople": 4728,
      "/\\": 4729,
      "=\\": 4730,
      "Total": 4731,
      "YZ": 4732,
      "]):\\": 4733,
      "ho": 4734,
      "nstart": 4735,
      "Ġthose": 4736,
      "strptime": 4737,
      "hecked": 4738,
      "Ġconsecutive": 4739,
      "parent": 4740,
      "imeter": 4741,
      "tegers": 4742,
      "ĠUs": 4743,
      "ĠGener": 4744,
      "Ġstats": 4745,
      "Ġsimp": 4746,
      "alizing": 4747,
      "encrypt": 4748,
      "packages": 4749,
      "difference": 4750,
      ">',": 4751,
      "SI": 4752,
      "Widget": 4753,
      "blue": 4754,
      "sigmoid": 4755,
      "Ġcube": 4756,
      "tili": 4757,
      "anks": 4758,
      "Ġlat": 4759,
      "ithub": 4760,
      "ĠCom": 4761,
      "Ġneighb": 4762,
      "'][": 4763,
      "Ġmylist": 4764,
      "triangle": 4765,
      "Ġinstallation": 4766,
      "Ġpopular": 4767,
      "Setup": 4768,
      "ĠTfidfVectorizer": 4769,
      "';\\": 4770,
      "37": 4771,
      "Fe": 4772,
      "Get": 4773,
      "fill": 4774,
      "nuser": 4775,
      "Ġenti": 4776,
      "Ġpunctuation": 4777,
      "alog": 4778,
      "Ġblob": 4779,
      "eta": 4780,
      "ĠCall": 4781,
      "comple": 4782,
      "pass": 4783,
      "],[": 4784,
      "results": 4785,
      "lopen": 4786,
      "startswith": 4787,
      "Ġcalculating": 4788,
      "Ġcomplexity": 4789,
      "'re": 4790,
      "bs": 4791,
      "cm": 4792,
      "nlabels": 4793,
      "device": 4794,
      "Ġinside": 4795,
      "urlopen": 4796,
      "Ġlarger": 4797,
      "Ġdevice": 4798,
      "Ġcommun": 4799,
      "Ġensure": 4800,
      "Ġsubarray": 4801,
      "ĠGUI": 4802,
      "anager": 4803,
      "tivity": 4804,
      "filtered": 4805,
      "Ġ&&": 4806,
      "Ġincreasing": 4807,
      "Result": 4808,
      "Neighbors": 4809,
      "softmax": 4810,
      "Ġasyncio": 4811,
      "white": 4812,
      "EN": 4813,
      "Pa": 4814,
      "nD": 4815,
      "Ġcat": 4816,
      "Ġsa": 4817,
      "Ġplatform": 4818,
      "sequences": 4819,
      "nfile": 4820,
      "ressed": 4821,
      "Ġweek": 4822,
      "ĠBinary": 4823,
      "amily": 4824,
      "phan": 4825,
      "ants": 4826,
      "cols": 4827,
      "emails": 4828,
      "Ġabsolute": 4829,
      "Ġrepresents": 4830,
      "umeric": 4831,
      "Ġshortest": 4832,
      "ĠPandas": 4833,
      "Price": 4834,
      "iou": 4835,
      "ĠSub": 4836,
      "Ġdefinition": 4837,
      "extend": 4838,
      "Content": 4839,
      "Ġcommands": 4840,
      "Ġ{}'.": 4841,
      "ĠIniti": 4842,
      "Ġgenerator": 4843,
      "Ġcategory": 4844,
      "Ġinsertion": 4845,
      "Ġindividual": 4846,
      "TH": 4847,
      "holder": 4848,
      "nvectorizer": 4849,
      "ĠâĢ": 4850,
      "Ġind": 4851,
      "lide": 4852,
      "ĠPlot": 4853,
      "ctx": 4854,
      "Ġ((": 4855,
      "async": 4856,
      "Ġhum": 4857,
      "combinations": 4858,
      "ĠMon": 4859,
      "ĠGoogle": 4860,
      "ĠReact": 4861,
      "Ġbetter": 4862,
      "Ġvarious": 4863,
      "cale": 4864,
      "Ġphrase": 4865,
      "LM": 4866,
      "nres": 4867,
      "uid": 4868,
      "vance": 4869,
      "inte": 4870,
      "Ġreach": 4871,
      "Ġedge": 4872,
      "Ġdraw": 4873,
      "Ġ'%": 4874,
      "itter": 4875,
      "ilarity": 4876,
      "ĠAge": 4877,
      "Ġdecry": 4878,
      "Ġlearn": 4879,
      "Ġcomment": 4880,
      "shuffle": 4881,
      "Ġroll": 4882,
      "Ġrepresenting": 4883,
      "uite": 4884,
      "ABCD": 4885,
      "display": 4886,
      "tuple": 4887,
      "Ġsmaller": 4888,
      "Ġdependen": 4889,
      "aeiou": 4890,
      "'ve": 4891,
      "Flow": 4892,
      "non": 4893,
      "ntest": 4894,
      "Ġ...": 4895,
      "stu": 4896,
      "Ġfew": 4897,
      "Ġow": 4898,
      "ĠPDF": 4899,
      "ĠPHP": 4900,
      "Ġreturned": 4901,
      "ssian": 4902,
      "itude": 4903,
      "ĠTEXT": 4904,
      "Ġ===": 4905,
      "Ġconsist": 4906,
      "Ġrespec": 4907,
      "Ġdefined": 4908,
      "opy": 4909,
      "Ġresulting": 4910,
      "imshow": 4911,
      "achine": 4912,
      "Ġface": 4913,
      "Return": 4914,
      "Ġremoved": 4915,
      "spam": 4916,
      "products": 4917,
      "nNote": 4918,
      "video": 4919,
      ")*(": 4920,
      "88": 4921,
      "Banana": 4922,
      "Form": 4923,
      "Window": 4924,
      "ice": 4925,
      "nown": 4926,
      "};\\": 4927,
      "ene": 4928,
      "Ġdynam": 4929,
      "Ġ'{": 4930,
      "Ġ'',": 4931,
      "quantity": 4932,
      "Ġdefin": 4933,
      "Ġdele": 4934,
      "Ġmatrices": 4935,
      "Ġperm": 4936,
      "ntarget": 4937,
      "Ġmovies": 4938,
      "bye": 4939,
      "Product": 4940,
      "ĠPredict": 4941,
      "Ġtechnique": 4942,
      "\"],\\": 4943,
      ">'\\": 4944,
      "ED": 4945,
      "[^": 4946,
      "]['": 4947,
      "fc": 4948,
      "greate": 4949,
      "imple": 4950,
      "rb": 4951,
      "scra": 4952,
      "Ġ...\\": 4953,
      "details": 4954,
      "Ġwra": 4955,
      "Ġwell": 4956,
      "Ġmysql": 4957,
      "Ġlang": 4958,
      "esar": 4959,
      "Ġ33": 4960,
      "Ġmap": 4961,
      "Ġimportant": 4962,
      "ĠAu": 4963,
      "':'": 4964,
      "Ġtextblob": 4965,
      "Integer": 4966,
      "tively": 4967,
      "otes": 4968,
      "ĠTraverse": 4969,
      "12345678": 4970,
      "AY": 4971,
      "Ca": 4972,
      "Div": 4973,
      "OST": 4974,
      "bn": 4975,
      "pivot": 4976,
      "sy": 4977,
      "Ġfig": 4978,
      "Ġfood": 4979,
      "('%": 4980,
      "Ġprintf": 4981,
      "ected": 4982,
      "ultipli": 4983,
      "Ġpositions": 4984,
      "Arr": 4985,
      "izz": 4986,
      "ĠStart": 4987,
      "utils": 4988,
      "\"],": 4989,
      "Even": 4990,
      "Âł": 4991,
      "Ġschedule": 4992,
      "Ġfaster": 4993,
      "Ġtre": 4994,
      "nist": 4995,
      "ĠIs": 4996,
      "')]\\": 4997,
      "Ġfact": 4998,
      "Read": 4999,
      "abs": 5000,
      "news": 5001,
      "Ġheadlines": 5002,
      "ĠURLs": 5003,
      "clear": 5004,
      "ĠCompute": 5005,
      "Accuracy": 5006,
      "tweet": 5007,
      "Ġprocesses": 5008,
      ")`": 5009,
      "36": 5010,
      "500": 5011,
      "HI": 5012,
      "MA": 5013,
      "Object": 5014,
      "PATH": 5015,
      "ities": 5016,
      "ndict": 5017,
      "ĠisPrime": 5018,
      "ves": 5019,
      "ĠIP": 5020,
      "Ġconstruct": 5021,
      "econd": 5022,
      "Ġextension": 5023,
      "contain": 5024,
      "redit": 5025,
      "Ġshift": 5026,
      "ĠRemove": 5027,
      "Ġfahrenheit": 5028,
      "Ġopening": 5029,
      "Ġtokenize": 5030,
      "Ġwriter": 5031,
      "squares": 5032,
      "Ġiteration": 5033,
      "denominator": 5034,
      "Auth": 5035,
      ")*": 5036,
      "Temp": 5037,
      "aa": 5038,
      "rl": 5039,
      "Ġsuggest": 5040,
      "liers": 5041,
      "tition": 5042,
      "Ġeval": 5043,
      "utom": 5044,
      "Ġrand": 5045,
      "isdigit": 5046,
      "Ġexperi": 5047,
      "Ġ42": 5048,
      "Ġhalf": 5049,
      "Ġsubsequence": 5050,
      "Ġcompany": 5051,
      "Process": 5052,
      "reversed": 5053,
      "ĠSVC": 5054,
      "ĠSwap": 5055,
      "uzz": 5056,
      "/%": 5057,
      ":.": 5058,
      "Average": 5059,
      "Inf": 5060,
      "Ser": 5061,
      "ier": 5062,
      "nsearch": 5063,
      "nauth": 5064,
      "suite": 5065,
      "vw": 5066,
      "Ġ```\\": 5067,
      "Ġturn": 5068,
      "uture": 5069,
      "adata": 5070,
      "illi": 5071,
      "ĠSum": 5072,
      "ĠSave": 5073,
      "alizer": 5074,
      "connection": 5075,
      "Ġargparse": 5076,
      "Ġlogin": 5077,
      "factors": 5078,
      "Ġbottom": 5079,
      "Ġcombine": 5080,
      "Ġforecast": 5081,
      "Ġcryptography": 5082,
      "abcdefghi": 5083,
      "jklm": 5084,
      "phanumeric": 5085,
      "Output": 5086,
      "QR": 5087,
      "fs": 5088,
      "mation": 5089,
      "Ġent": 5090,
      "ĠWrite": 5091,
      "Ġcriteri": 5092,
      "aring": 5093,
      "Ġraw": 5094,
      "iling": 5095,
      "icro": 5096,
      "timestamp": 5097,
      "ĠWhen": 5098,
      "ĠUsing": 5099,
      "Ġtimeout": 5100,
      "Ġformatted": 5101,
      "Ġparsed": 5102,
      "Example": 5103,
      "wikipedia": 5104,
      "LI": 5105,
      "review": 5106,
      "english": 5107,
      "Ġiris": 5108,
      "Ġinfo": 5109,
      "Ġremainder": 5110,
      "ndate": 5111,
      "anoi": 5112,
      "Ġ[],": 5113,
      "Ġdetermin": 5114,
      "contact": 5115,
      "Ġsublist": 5116,
      "percent": 5117,
      "Reg": 5118,
      "Ġidenti": 5119,
      "Ġdetected": 5120,
      "Ġsolutions": 5121,
      "sendmail": 5122,
      "Color": 5123,
      "Ġincrement": 5124,
      "CHAR": 5125,
      "39": 5126,
      "Log": 5127,
      "github": 5128,
      "nasync": 5129,
      "sign": 5130,
      "uded": 5131,
      "tex": 5132,
      "urity": 5133,
      "Ġele": 5134,
      "digest": 5135,
      "Ġcoefficient": 5136,
      "charAt": 5137,
      "onda": 5138,
      "ROUP": 5139,
      "Ġsides": 5140,
      "Ġsuccessfully": 5141,
      "uclide": 5142,
      "Ġremoving": 5143,
      "Ġprompt": 5144,
      "vwxyz": 5145,
      "uclidean": 5146,
      "First": 5147,
      "Gra": 5148,
      "Parser": 5149,
      "Palindrome": 5150,
      "System": 5151,
      "assert": 5152,
      "tadata": 5153,
      "vader": 5154,
      "era": 5155,
      "Ġcalc": 5156,
      "lim": 5157,
      "urrent": 5158,
      "Ġcoordinates": 5159,
      "Ġdeep": 5160,
      "artment": 5161,
      "Ġcollect": 5162,
      "ĠĠĠĠĠĠĠĠĠĠĠĠĠĠĠĠĠĠĠĠĠĠĠĠ": 5163,
      "fox": 5164,
      "objects": 5165,
      "posts": 5166,
      "Ġalphabetically": 5167,
      "OUNT": 5168,
      "Ġspeech": 5169,
      "tuples": 5170,
      "qrstu": 5171,
      "nopqrstu": 5172,
      "delta": 5173,
      "rooms": 5174,
      "nfiltered": 5175,
      "nwebbrowser": 5176,
      "/<": 5177,
      "Sp": 5178,
      "UM": 5179,
      "YY": 5180,
      "iost": 5181,
      "ntitle": 5182,
      "smallest": 5183,
      "Ġsales": 5184,
      "Ġdelimiter": 5185,
      "tags": 5186,
      "Ġdimension": 5187,
      "ĠDate": 5188,
      "ĠOne": 5189,
      "Ġneeded": 5190,
      "Ġpdf": 5191,
      "nSure": 5192,
      "Ġpaths": 5193,
      "ĠProcess": 5194,
      "catter": 5195,
      "ARY": 5196,
      "Compose": 5197,
      "Ġstopwords": 5198,
      "programming": 5199,
      "ĠTensorFlow": 5200,
      "abcdefghijklm": 5201,
      "nopqrstuvwxyz": 5202,
      "iostream": 5203,
      ".\")": 5204,
      "85": 5205,
      "KEY": 5206,
      "Password": 5207,
      "RD": 5208,
      "XYZ": 5209,
      "half": 5210,
      "Ġrecent": 5211,
      "Ġblue": 5212,
      "nitem": 5213,
      "ĠTw": 5214,
      "ĠTrans": 5215,
      "Ġmaking": 5216,
      "course": 5217,
      "Ġcout": 5218,
      "imread": 5219,
      "layout": 5220,
      "ĠUS": 5221,
      "Ġminimize": 5222,
      "ĠCreated": 5223,
      "php": 5224,
      "antum": 5225,
      "ĠKey": 5226,
      "Ġcorrectly": 5227,
      "Ġconstra": 5228,
      "students": 5229,
      "ĠLearning": 5230,
      "occurrences": 5231,
      ".</": 5232,
      "CR": 5233,
      "Found": 5234,
      "Train": 5235,
      "US": 5236,
      "ialize": 5237,
      "true": 5238,
      "tts": 5239,
      "uce": 5240,
      "Ġast": 5241,
      "Ġret": 5242,
      "Ġrepla": 5243,
      "Ġreason": 5244,
      "Ġecho": 5245,
      "Ġ[{'": 5246,
      "icense": 5247,
      "Ġ400": 5248,
      "ĠEX": 5249,
      "times": 5250,
      "aussian": 5251,
      "Ġ//=": 5252,
      "Ġvery": 5253,
      "Ġidx": 5254,
      "Exception": 5255,
      "Ġdevelopment": 5256,
      "Ġpurchase": 5257,
      "LOG": 5258,
      "Ġrespond": 5259,
      "\"}\\": 5260,
      "/')\\": 5261,
      "CREATE": 5262,
      "cp": 5263,
      "fib": 5264,
      "tx": 5265,
      "like": 5266,
      "Ġ'+": 5267,
      "Ġbit": 5268,
      "Ġ\"%": 5269,
      "ula": 5270,
      "Ġconverted": 5271,
      "ĠAc": 5272,
      "pect": 5273,
      "dicts": 5274,
      "ĠEn": 5275,
      "imal": 5276,
      "Ġ70": 5277,
      "Ġdistances": 5278,
      "ARCHAR": 5279,
      "clusive": 5280,
      "handler": 5281,
      "Ġobjective": 5282,
      "tweets": 5283,
      "({\\": 5284,
      "Su": 5285,
      "bies": 5286,
      "nmatrix": 5287,
      "zes": 5288,
      "ret": 5289,
      "requi": 5290,
      "err": 5291,
      "tist": 5292,
      "member": 5293,
      "Ġ'*": 5294,
      "unch": 5295,
      "ĠCustomer": 5296,
      "igin": 5297,
      "(\"\\": 5298,
      "Ġ587": 5299,
      "nclient": 5300,
      "ĠNew": 5301,
      "tical": 5302,
      "Ġcorre": 5303,
      "ĠConnect": 5304,
      "hich": 5305,
      "fields": 5306,
      "ĠASC": 5307,
      "Ġcapitalized": 5308,
      "Ġrectangle": 5309,
      "Ġindent": 5310,
      "WS": 5311,
      "YPE": 5312,
      "gment": 5313,
      "nlength": 5314,
      "screen": 5315,
      "Ġroman": 5316,
      "Ġsr": 5317,
      "Ġrelease": 5318,
      "Ġden": 5319,
      "Ġbound": 5320,
      "isupper": 5321,
      "ditions": 5322,
      "asca": 5323,
      "ĠMax": 5324,
      "Ġcomputes": 5325,
      "Ġknapsack": 5326,
      "ferences": 5327,
      "ĠĠĠĠĠĠĠĠĠĠĠĠĠĠĠĠĠ": 5328,
      "Int": 5329,
      "Ġperfect": 5330,
      "john": 5331,
      "ĠVARCHAR": 5332,
      "eek": 5333,
      "estim": 5334,
      "Ġcases": 5335,
      "Ġdocumentation": 5336,
      "connector": 5337,
      "Ġparam": 5338,
      "Compute": 5339,
      "grees": 5340,
      "Substring": 5341,
      "Ġrepeated": 5342,
      "ĠPoint": 5343,
      "ĠLinkedList": 5344,
      "ĠNumPy": 5345,
      "permutations": 5346,
      "property": 5347,
      "NeighborsClassifier": 5348,
      "\"):\\": 5349,
      "Ind": 5350,
      "Show": 5351,
      "ball": 5352,
      "cf": 5353,
      "clip": 5354,
      "django": 5355,
      "emat": 5356,
      "generator": 5357,
      "home": 5358,
      "wav": 5359,
      "Ġì": 5360,
      "real": 5361,
      "Ġsince": 5362,
      "Ġnavig": 5363,
      "isalpha": 5364,
      "Ġstill": 5365,
      "Ġ64": 5366,
      "week": 5367,
      "Ġexecution": 5368,
      "Ġextracts": 5369,
      "Counter": 5370,
      "ING": 5371,
      "Define": 5372,
      "Ġdepth": 5373,
      "Values": 5374,
      "Ġincludes": 5375,
      "stdout": 5376,
      "numerator": 5377,
      "abcdefghijklmnopqrstuvwxyz": 5378,
      "!\"": 5379,
      "69": 5380,
      "77": 5381,
      "<!": 5382,
      "END": 5383,
      "Give": 5384,
      "Hi": 5385,
      "far": 5386,
      "press": 5387,
      "requency": 5388,
      "Ġthreshold": 5389,
      "Ġblog": 5390,
      "usic": 5391,
      "ĠTime": 5392,
      "Ġcos": 5393,
      "movies": 5394,
      "cribe": 5395,
      "Ġtables": 5396,
      "STM": 5397,
      "Ġneeds": 5398,
      "Ġscraping": 5399,
      "INT": 5400,
      "ĠCompare": 5401,
      "Submit": 5402,
      "category": 5403,
      "Ġmanagement": 5404,
      "Ġrotate": 5405,
      "Ġrestaurant": 5406,
      "ABCDEF": 5407,
      "={'": 5408,
      "AN": 5409,
      "ENT": 5410,
      "Trans": 5411,
      "\\*": 5412,
      "nmessage": 5413,
      "}]\\": 5414,
      "ran": 5415,
      "lear": 5416,
      "medi": 5417,
      "utable": 5418,
      "quick": 5419,
      "paper": 5420,
      "ciated": 5421,
      "));\\": 5422,
      "ĠMongo": 5423,
      "ĠKEY": 5424,
      "ĠKNeighborsClassifier": 5425,
      "tribute": 5426,
      "ynomial": 5427,
      "ESS": 5428,
      "Ġlonger": 5429,
      "clusters": 5430,
      "Ġconfiguration": 5431,
      "Ġextracted": 5432,
      "Ġbeginning": 5433,
      "Order": 5434,
      "ĠNaive": 5435,
      "Line": 5436,
      "OK": 5437,
      "Run": 5438,
      "hour": 5439,
      "nTh": 5440,
      "variable": 5441,
      "arket": 5442,
      "separa": 5443,
      "ĠPR": 5444,
      "nparser": 5445,
      "hes": 5446,
      "iness": 5447,
      "ĠAES": 5448,
      "Ġshutil": 5449,
      "ifies": 5450,
      "prefix": 5451,
      "bose": 5452,
      "Ġstarts": 5453,
      "nodes": 5454,
      "obbies": 5455,
      "Ġsql": 5456,
      "svm": 5457,
      "nWhen": 5458,
      "Ġ||": 5459,
      "Ġgenerating": 5460,
      "OUR": 5461,
      "riendly": 5462,
      "Pooling": 5463,
      "greater": 5464,
      ":</": 5465,
      "[['": 5466,
      "eatures": 5467,
      "merge": 5468,
      "power": 5469,
      "ori": 5470,
      "Ġmsg": 5471,
      "Ġ[('": 5472,
      "channel": 5473,
      "ages": 5474,
      "uby": 5475,
      "idity": 5476,
      "optimize": 5477,
      "Ġ/>\\": 5478,
      "ilities": 5479,
      "Ġwriting": 5480,
      "Ġissues": 5481,
      "Ġcombined": 5482,
      "Is": 5483,
      "Image": 5484,
      "Phone": 5485,
      "mark": 5486,
      "pur": 5487,
      "where": 5488,
      "regex": 5489,
      "detect": 5490,
      "lector": 5491,
      "Ġinner": 5492,
      "unk": 5493,
      "ĠSh": 5494,
      "Ġexpon": 5495,
      "Ġmeas": 5496,
      "(),\\": 5497,
      "Ġsums": 5498,
      "Ġhome": 5499,
      "ĠLicense": 5500,
      "ĠBook": 5501,
      "Ġhapp": 5502,
      "Ġgetting": 5503,
      "convert": 5504,
      "ĠWhat": 5505,
      "Ġconverting": 5506,
      "Ġroute": 5507,
      "Ġnote": 5508,
      "nThere": 5509,
      "Ġautomating": 5510,
      "ĠCompile": 5511,
      "ĠToken": 5512,
      "structions": 5513,
      ">>>": 5514,
      "Stack": 5515,
      "(',": 5516,
      "02": 5517,
      "Car": 5518,
      "IP": 5519,
      "KLM": 5520,
      "evaluate": 5521,
      "pr": 5522,
      "roy": 5523,
      "ndictionary": 5524,
      "Ġgive": 5525,
      "ough": 5526,
      "ĠIF": 5527,
      "Ġ-*": 5528,
      "nscore": 5529,
      "crimin": 5530,
      "Ġonce": 5531,
      "Ġ65": 5532,
      "Ġcols": 5533,
      "**\\": 5534,
      "Ġurls": 5535,
      "CTYPE": 5536,
      "Ġstatistics": 5537,
      "Ġduration": 5538,
      "Ġvectors": 5539,
      "Ġupdated": 5540,
      "correct": 5541,
      "Application": 5542,
      "Ġaccepts": 5543,
      "prediction": 5544,
      "Ġhistogram": 5545,
      "ircum": 5546,
      "Ġmenu": 5547,
      "Ġpassed": 5548,
      "ĠStore": 5549,
      "Ġauthentication": 5550,
      ")])\\": 5551,
      "Val": 5552,
      "bu": 5553,
      "bird": 5554,
      "dp": 5555,
      "nmin": 5556,
      "})": 5557,
      "integers": 5558,
      "Ġawait": 5559,
      "Ġctypes": 5560,
      "Ġsrc": 5561,
      "Ġput": 5562,
      "urses": 5563,
      "Ġ[['": 5564,
      "texts": 5565,
      "acent": 5566,
      "Ġentered": 5567,
      "Ġ75": 5568,
      "vals": 5569,
      "]);\\": 5570,
      "Ġruns": 5571,
      "Ġreplacement": 5572,
      "export": 5573,
      "Ġrepeat": 5574,
      "Ġlooking": 5575,
      "Ġadditional": 5576,
      "DOCTYPE": 5577,
      "Ġcriteria": 5578,
      ":\")": 5579,
      "IC": 5580,
      "mul": 5581,
      "}</": 5582,
      "Ġcross": 5583,
      "Ġim": 5584,
      "levant": 5585,
      "gether": 5586,
      "mpty": 5587,
      "ater": 5588,
      "Ġest": 5589,
      "ues": 5590,
      "admin": 5591,
      "Ġitself": 5592,
      "Ġdiag": 5593,
      "ĠDo": 5594,
      "Ġ101": 5595,
      "Ġcolors": 5596,
      "country": 5597,
      "ĠGiven": 5598,
      "outube": 5599,
      "])):\\": 5600,
      "Ġ\"\".": 5601,
      "Ġencryption": 5602,
      "Ġnumeric": 5603,
      "samples": 5604,
      "Thread": 5605,
      "Ġwhitespace": 5606,
      "Ġeasy": 5607,
      "Ġdependencies": 5608,
      "/{": 5609,
      "Equ": 5610,
      "ef": 5611,
      "nindex": 5612,
      "works": 5613,
      "reed": 5614,
      "decry": 5615,
      "alg": 5616,
      "ĠTri": 5617,
      "ĠSample": 5618,
      "mplemented": 5619,
      "Ġdeviation": 5620,
      "ersion": 5621,
      "Ġwhy": 5622,
      "Ġdirect": 5623,
      "Ġhold": 5624,
      "Ġchannel": 5625,
      "ĠLabel": 5626,
      "ĠRec": 5627,
      "mylist": 5628,
      "Ġremoves": 5629,
      "Ġtemperatures": 5630,
      "nax": 5631,
      "requests": 5632,
      "9999": 5633,
      "ĠArgs": 5634,
      "Ġparts": 5635,
      "winleft": 5636,
      "Ġcrawler": 5637,
      "Ġpiece": 5638,
      "ultiplication": 5639,
      "Info": 5640,
      "ascade": 5641,
      "BA": 5642,
      "Distance": 5643,
      "IG": 5644,
      "Odd": 5645,
      "Range": 5646,
      "TE": 5647,
      "customers": 5648,
      "jor": 5649,
      "Ġref": 5650,
      "umped": 5651,
      "urs": 5652,
      "Ġ')": 5653,
      "Ġlcs": 5654,
      "('{": 5655,
      "Ġfunctionality": 5656,
      "Ġstri": 5657,
      "ĠAss": 5658,
      "icode": 5659,
      "Ġexpected": 5660,
      "ĠDes": 5661,
      "ĠEmail": 5662,
      "ĠOr": 5663,
      "------": 5664,
      "ĠĠĠĠĠĠĠĠĠĠĠĠĠĠĠĠĠĠĠĠĠĠĠĠĠĠĠĠĠĠĠ": 5665,
      "ĠOutputs": 5666,
      "ĠReplace": 5667,
      "tric": 5668,
      "Strings": 5669,
      "STU": 5670,
      "tokenizer": 5671,
      "nbutton": 5672,
      "Ġsite": 5673,
      "izing": 5674,
      "Response": 5675,
      "waitKey": 5676,
      "-]+@": 5677,
      "Book": 5678,
      "EGER": 5679,
      "Player": 5680,
      "circle": 5681,
      "dump": 5682,
      "gument": 5683,
      "hance": 5684,
      "nvar": 5685,
      "person": 5686,
      "zone": 5687,
      "recur": 5688,
      "recogni": 5689,
      "reviews": 5690,
      "Ġcap": 5691,
      "Ġ\\*": 5692,
      "Ġwins": 5693,
      "Ġmight": 5694,
      "ĠCa": 5695,
      "Ġ36": 5696,
      "ectangle": 5697,
      "Conv": 5698,
      "2021": 5699,
      "images": 5700,
      "Ġperforms": 5701,
      "Ġmathemat": 5702,
      "Ġexpressions": 5703,
      "Ġtried": 5704,
      "Ġswapp": 5705,
      "depend": 5706,
      "docs": 5707,
      "Ġ8080": 5708,
      "Ġsymbol": 5709,
      "Factor": 5710,
      "Ġentries": 5711,
      "RDER": 5712,
      "ĠASCII": 5713,
      "ABCDEFG": 5714,
      "ircumference": 5715,
      "NAM": 5716,
      "cache": 5717,
      "fruit": 5718,
      "hy": 5719,
      "scatter": 5720,
      "tasks": 5721,
      "vas": 5722,
      "way": 5723,
      "report": 5724,
      "Ġcha": 5725,
      "Ġrem": 5726,
      "Ġnet": 5727,
      "arm": 5728,
      "Ġtogether": 5729,
      "lap": 5730,
      "terms": 5731,
      "Ġ31": 5732,
      "cout": 5733,
      "Ġhouse": 5734,
      "cont": 5735,
      "necho": 5736,
      "Ġaddr": 5737,
      "amb": 5738,
      "ĠExcel": 5739,
      "oodbye": 5740,
      "fier": 5741,
      "ruits": 5742,
      "speech": 5743,
      "ĠUsage": 5744,
      "+',": 5745,
      "34": 5746,
      "89": 5747,
      "Du": 5748,
      "IS": 5749,
      "Let": 5750,
      "NOP": 5751,
      "Rec": 5752,
      "cating": 5753,
      "ializer": 5754,
      "public": 5755,
      "Ġcapit": 5756,
      "Ġfoo": 5757,
      "Ġpick": 5758,
      "articles": 5759,
      "tics": 5760,
      "units": 5761,
      "ĠgTT": 5762,
      "isten": 5763,
      "ĠType": 5764,
      "ncol": 5765,
      "Ġsetting": 5766,
      "Token": 5767,
      "luded": 5768,
      "green": 5769,
      "npyautogui": 5770,
      "children": 5771,
      "ĠIncluded": 5772,
      "ublisher": 5773,
      "!\",": 5774,
      ".'''\\": 5775,
      "ION": 5776,
      "JKLM": 5777,
      "Per": 5778,
      "Update": 5779,
      "VW": 5780,
      "five": 5781,
      "git": 5782,
      "hic": 5783,
      "lon": 5784,
      "nCreate": 5785,
      "norm": 5786,
      "Ġve": 5787,
      "ency": 5788,
      "Ġredi": 5789,
      "loor": 5790,
      "ellow": 5791,
      "nsh": 5792,
      "nsentiment": 5793,
      "aconda": 5794,
      "consumer": 5795,
      "ills": 5796,
      "mong": 5797,
      "Config": 5798,
      "alyze": 5799,
      "Ġpasswords": 5800,
      "Elements": 5801,
      "State": 5802,
      "Ġincluded": 5803,
      "nprediction": 5804,
      "pairs": 5805,
      "similarity": 5806,
      "destroy": 5807,
      "Ġvisualization": 5808,
      "\\.[": 5809,
      "QRSTU": 5810,
      "VWXYZ": 5811,
      "QRSTUVWXYZ": 5812,
      "';": 5813,
      "67": 5814,
      ">\"\\": 5815,
      "Bot": 5816,
      "Valid": 5817,
      "View": 5818,
      "bj": 5819,
      "mmat": 5820,
      "marks": 5821,
      "nmean": 5822,
      "nreg": 5823,
      "nusing": 5824,
      "Ġ)": 5825,
      "Ġlayers": 5826,
      "repe": 5827,
      "Ġfree": 5828,
      "Ġtmp": 5829,
      "tify": 5830,
      "meta": 5831,
      "ately": 5832,
      "Ġ'{\"": 5833,
      "Ġgu": 5834,
      "ading": 5835,
      "pport": 5836,
      "Ġans": 5837,
      "Ġvowel": 5838,
      "ĠFetch": 5839,
      "=\"\")\\": 5840,
      "shift": 5841,
      "Ġfollows": 5842,
      "prev": 5843,
      "ideos": 5844,
      "pages": 5845,
      "ELETE": 5846,
      "missing": 5847,
      "Ġsqrt": 5848,
      "ĠPyQt": 5849,
      "Ġoptimal": 5850,
      "backend": 5851,
      "Ġframework": 5852,
      "trained": 5853,
      "roller": 5854,
      "ĠBuilding": 5855,
      "AllWindows": 5856,
      "Ġscaler": 5857,
      "hexdigest": 5858,
      "Matrix": 5859,
      "ĠDisplay": 5860,
      "divisible": 5861,
      "ĠgTTS": 5862,
      "/'\\": 5863,
      ":'": 5864,
      "And": 5865,
      "Title": 5866,
      "cup": 5867,
      "gi": 5868,
      "sent": 5869,
      "stem": 5870,
      "Ġaround": 5871,
      "rev": 5872,
      "Ġred": 5873,
      "Ġwon": 5874,
      "dices": 5875,
      "(\"/": 5876,
      "exception": 5877,
      "Ġwere": 5878,
      "ĠBayes": 5879,
      "ĠMin": 5880,
      "ĠHe": 5881,
      "Ġsubmit": 5882,
      "++;\\": 5883,
      "rectories": 5884,
      "Ġformula": 5885,
      "restaurant": 5886,
      "Ġcontrol": 5887,
      "Ġcapacity": 5888,
      "attrs": 5889,
      "Ġrequirements": 5890,
      "ĠEnglish": 5891,
      "HIJKLM": 5892,
      "NOPQRSTUVWXYZ": 5893,
      "Lib": 5894,
      "ds": 5895,
      "long": 5896,
      "warning": 5897,
      "}\".": 5898,
      "integer": 5899,
      "stra": 5900,
      "Ġcenter": 5901,
      "Ġsound": 5902,
      "Ġpadding": 5903,
      "Ġrelated": 5904,
      "listdir": 5905,
      "Ġbrac": 5906,
      "oman": 5907,
      "Ġprodu": 5908,
      "ĠChat": 5909,
      "quare": 5910,
      "ĠId": 5911,
      "ĠSend": 5912,
      "tooth": 5913,
      "ĠAnd": 5914,
      "()[": 5915,
      "ĠMachine": 5916,
      "license": 5917,
      "ĠReverse": 5918,
      "Ġsecurity": 5919,
      "Mean": 5920,
      "ĠINTEGER": 5921,
      "Web": 5922,
      "ĠPerforming": 5923,
      "Common": 5924,
      "Ġcomponents": 5925,
      "Ġinterpreter": 5926,
      "Ġdistribution": 5927,
      "oriented": 5928,
      "ABCDEFGHIJKLM": 5929,
      "CS": 5930,
      "Mi": 5931,
      "RU": 5932,
      "bind": 5933,
      "ffe": 5934,
      "ering": 5935,
      "Ġicon": 5936,
      "lig": 5937,
      "lied": 5938,
      "utation": 5939,
      "choices": 5940,
      "ĠSim": 5941,
      "ĠAND": 5942,
      "tab": 5943,
      "ĠmaxLength": 5944,
      "account": 5945,
      "nemail": 5946,
      "ibility": 5947,
      "shot": 5948,
      "myList": 5949,
      "Ġquantum": 5950,
      "phant": 5951,
      "****": 5952,
      "aborn": 5953,
      "PIO": 5954,
      "classifier": 5955,
      "Ġmatching": 5956,
      "Ġpredicted": 5957,
      "oku": 5958,
      "Ġiterates": 5959,
      "ĠMyClass": 5960,
      "Ġintegra": 5961,
      "multiply": 5962,
      "Users": 5963,
      "estimators": 5964,
      "!</": 5965,
      "'ll": 5966,
      "FI": 5967,
      "MM": 5968,
      "Net": 5969,
      "OM": 5970,
      "PU": 5971,
      "bed": 5972,
      "dt": 5973,
      "nString": 5974,
      "tls": 5975,
      "Ġten": 5976,
      "ony": 5977,
      "Ġbl": 5978,
      "Ġarch": 5979,
      "etri": 5980,
      "ĠTk": 5981,
      "(\"*": 5982,
      "Ġdirection": 5983,
      "formed": 5984,
      "Ġsection": 5985,
      "sets": 5986,
      "Ġcomments": 5987,
      "Ġfollowed": 5988,
      "101": 5989,
      "Ġkernel": 5990,
      "Ġfailed": 5991,
      "Reverse": 5992,
      "duplicate": 5993,
      "capacity": 5994,
      "Ġasso": 5995,
      "Ġlowest": 5996,
      "Ġscienti": 5997,
      "register": 5998,
      "Ġincrease": 5999,
      "Words": 6000,
      "Ġseparated": 6001,
      "COL": 6002,
      "ABCDEFGHIJKLMNOPQRSTUVWXYZ": 6003,
      "From": 6004,
      "YOUR": 6005,
      "[(": 6006,
      "af": 6007,
      "actions": 6008,
      "dtype": 6009,
      "nPython": 6010,
      "Ã©": 6011,
      "than": 6012,
      "nds": 6013,
      "Ġways": 6014,
      "Ġdir": 6015,
      "usiness": 6016,
      "ĠCan": 6017,
      "copg": 6018,
      "ĠAWS": 6019,
      "addr": 6020,
      "Ġpermission": 6021,
      "pher": 6022,
      "Ġtemplate": 6023,
      "Ġloops": 6024,
      "starttls": 6025,
      "Ġfeed": 6026,
      "Ġtrace": 6027,
      "stats": 6028,
      "('/')\\": 6029,
      "Ġindicating": 6030,
      "Ġgensim": 6031,
      "scaled": 6032,
      "arison": 6033,
      "ĠEXIST": 6034,
      "=[\"": 6035,
      "Base": 6036,
      "Do": 6037,
      "Dep": 6038,
      "LP": 6039,
      "NA": 6040,
      "Orange": 6041,
      "PUT": 6042,
      "best": 6043,
      "help": 6044,
      "lxml": 6045,
      "pad": 6046,
      "volume": 6047,
      "ĠPrice": 6048,
      "Ġ29": 6049,
      "ĠIS": 6050,
      "pay": 6051,
      "pare": 6052,
      "ractive": 6053,
      ")),\\": 6054,
      "service": 6055,
      "ĠHand": 6056,
      "ipFile": 6057,
      "ipeline": 6058,
      "Ġscale": 6059,
      "ĠVis": 6060,
      "nAl": 6061,
      "component": 6062,
      "Ġmakes": 6063,
      "ĠPrinting": 6064,
      "Ġsquared": 6065,
      "intersection": 6066,
      "Ġdivision": 6067,
      "writerow": 6068,
      "nORDER": 6069,
      "Ġsimul": 6070,
      "website": 6071,
      "Ġgreeting": 6072,
      "Ġplain": 6073,
      "Negative": 6074,
      "Alchemy": 6075,
      "utorial": 6076,
      "Ġtechniques": 6077,
      "Ġdirectly": 6078,
      "hicle": 6079,
      "destroyAllWindows": 6080,
      "31": 6081,
      ">{": 6082,
      "gree": 6083,
      "por": 6084,
      "pow": 6085,
      "sin": 6086,
      "sender": 6087,
      "Ġsns": 6088,
      "rapp": 6089,
      "Ġpred": 6090,
      "Ġrelevant": 6091,
      "roup": 6092,
      "ced": 6093,
      "unsorted": 6094,
      "('-": 6095,
      "coun": 6096,
      "Ġaltern": 6097,
      "today": 6098,
      "ncry": 6099,
      "ĠNetwork": 6100,
      "ĠDES": 6101,
      "Ġnamespace": 6102,
      "Ġhaving": 6103,
      "Ġshort": 6104,
      "ntree": 6105,
      "++)\\": 6106,
      "ventory": 6107,
      "Ġ{},": 6108,
      "Change": 6109,
      "Ġswitch": 6110,
      "Ġseems": 6111,
      "IMARY": 6112,
      "RequestHandler": 6113,
      "Ġconsider": 6114,
      "scissors": 6115,
      "ĠParameters": 6116,
      "Ġsimply": 6117,
      "Ġentire": 6118,
      "interest": 6119,
      "Ġdeleted": 6120,
      "Capture": 6121,
      "ĠPRIMARY": 6122,
      "ĠEXISTS": 6123,
      "84": 6124,
      "IO": 6125,
      "Math": 6126,
      "PT": 6127,
      "Sentence": 6128,
      "With": 6129,
      "cision": 6130,
      "nhead": 6131,
      "tre": 6132,
      "vin": 6133,
      "walk": 6134,
      "xpath": 6135,
      "Ġcm": 6136,
      "Ġreally": 6137,
      "umul": 6138,
      "rod": 6139,
      "rock": 6140,
      "urther": 6141,
      "elenium": 6142,
      "nis": 6143,
      "('<": 6144,
      "Ġmade": 6145,
      "parameters": 6146,
      "ĠAfter": 6147,
      "Ġtab": 6148,
      "forward": 6149,
      "ĠLast": 6150,
      "Ġcompile": 6151,
      "ndataset": 6152,
      "Ġverbose": 6153,
      "lerate": 6154,
      "ĠSQLAlchemy": 6155,
      "Ġdetection": 6156,
      "Ġpredicting": 6157,
      "Ġsmart": 6158,
      "ABC": 6159,
      "Ġscikit": 6160,
      "Ġmonths": 6161,
      "Ġrecursion": 6162,
      "ĠAppend": 6163,
      "translate": 6164,
      "predictions": 6165,
      "Ġnormalized": 6166,
      "Ġdestination": 6167,
      "Monty": 6168,
      "records": 6169,
      "normal": 6170,
      "atterns": 6171,
      "writer": 6172,
      "SOCK": 6173,
      "cipal": 6174,
      "Ġactual": 6175,
      ",))\\": 6176,
      "EM": 6177,
      "]),": 6178,
      "mm": 6179,
      "nvalue": 6180,
      "tude": 6181,
      "ycopg": 6182,
      "zon": 6183,
      "Ġpres": 6184,
      "rig": 6185,
      "Ġdtype": 6186,
      "ueue": 6187,
      "niris": 6188,
      "Ġproduce": 6189,
      "Ġalpha": 6190,
      "tocol": 6191,
      "ĠAt": 6192,
      "ĠError": 6193,
      "));": 6194,
      "Ġmultiprocessing": 6195,
      "Ġgrades": 6196,
      "Ġhandler": 6197,
      "ĠProduct": 6198,
      "Ġtopic": 6199,
      "Ġupdates": 6200,
      "nWhat": 6201,
      "Ġgeneral": 6202,
      "Ġindicate": 6203,
      "ikipedia": 6204,
      "âĢĻ": 6205,
      "lished": 6206,
      "Ġclusters": 6207,
      "-]+\\.[": 6208,
      "nthread": 6209,
      "Query": 6210,
      "criminant": 6211,
      "-]+@[": 6212,
      "300": 6213,
      "97": 6214,
      "FT": 6215,
      "IV": 6216,
      "LT": 6217,
      "Loc": 6218,
      "Linear": 6219,
      "Two": 6220,
      "double": 6221,
      "fun": 6222,
      "gan": 6223,
      "gress": 6224,
      "nes": 6225,
      "rm": 6226,
      "zation": 6227,
      "}\")": 6228,
      "Ġcre": 6229,
      "roid": 6230,
      "ĠPOST": 6231,
      "defined": 6232,
      "Ġbig": 6233,
      "Ġgit": 6234,
      "npo": 6235,
      "Ġanom": 6236,
      "etree": 6237,
      "havi": 6238,
      "Ġ300": 6239,
      "Ġcome": 6240,
      "getElement": 6241,
      "ĠSelenium": 6242,
      "ptcha": 6243,
      "()]\\": 6244,
      "pear": 6245,
      "cipi": 6246,
      "Ġloc": 6247,
      "serve": 6248,
      "shtein": 6249,
      "nbtn": 6250,
      "creasing": 6251,
      "nother": 6252,
      "Ġversions": 6253,
      "ĠStreet": 6254,
      "ElementTree": 6255,
      "Ġdepartment": 6256,
      "ĠArmstrong": 6257,
      "comes": 6258,
      "Start": 6259,
      "ĠColumn": 6260,
      "ĠMove": 6261,
      "ĠInsert": 6262,
      "Ġown": 6263,
      "cipient": 6264,
      "+-]+@[": 6265,
      "Volume": 6266,
      "cmd": 6267,
      "opping": 6268,
      "uous": 6269,
      "wb": 6270,
      "environ": 6271,
      "Ġcache": 6272,
      "Ġsong": 6273,
      "Ġide": 6274,
      "rases": 6275,
      "ratio": 6276,
      "atively": 6277,
      "loaded": 6278,
      "Ġ\"\")\\": 6279,
      "Ġconversion": 6280,
      "Ġconditions": 6281,
      "Ġalong": 6282,
      "ĠSp": 6283,
      "ĠScra": 6284,
      "Ġstar": 6285,
      "irm": 6286,
      "ĠNote": 6287,
      "Ġselected": 6288,
      "ĠDictionary": 6289,
      ")),": 6290,
      "ĠOS": 6291,
      "context": 6292,
      "ĠGCD": 6293,
      "ĠGaussian": 6294,
      "Ġkwargs": 6295,
      "currency": 6296,
      "Ġquad": 6297,
      "ixel": 6298,
      "ĠVariable": 6299,
      "naverage": 6300,
      "Ġimplementing": 6301,
      "Chrome": 6302,
      "Ġdepending": 6303,
      "Ġavoid": 6304,
      "168": 6305,
      "'}).": 6306,
      "history": 6307,
      "alphabet": 6308,
      "ĠTwitter": 6309,
      "<=": 6310,
      "Post": 6311,
      "Uni": 6312,
      "adecimal": 6313,
      "css": 6314,
      "dating": 6315,
      "gy": 6316,
      "nage": 6317,
      "nunique": 6318,
      "sales": 6319,
      "}.": 6320,
      "}\"\\": 6321,
      "}'.": 6322,
      "indices": 6323,
      "Ġsat": 6324,
      "Ġprofile": 6325,
      "isode": 6326,
      "ado": 6327,
      "ĠClick": 6328,
      "Ġmaint": 6329,
      "Ġdevices": 6330,
      "tained": 6331,
      "Ġdialog": 6332,
      "Ġlock": 6333,
      "Ġcountry": 6334,
      "conf": 6335,
      "Ġcommit": 6336,
      "anging": 6337,
      "learning": 6338,
      "duration": 6339,
      "nIs": 6340,
      "Explain": 6341,
      "without": 6342,
      "Positive": 6343,
      "Ġgoal": 6344,
      "npyglet": 6345,
      "\"\"\"": 6346,
      "Ġrecognize": 6347,
      "nproduct": 6348,
      "Ġattrs": 6349,
      "rappe": 6350,
      "\";": 6351,
      "(?": 6352,
      "GB": 6353,
      "Red": 6354,
      "center": 6355,
      "gcd": 6356,
      "ient": 6357,
      "Ġsur": 6358,
      "Ġinvalid": 6359,
      "Ġpeek": 6360,
      "Ġwor": 6361,
      "Ġ\"--": 6362,
      "mazon": 6363,
      "Ġvia": 6364,
      "Ġexternal": 6365,
      "iform": 6366,
      "Ġdegrees": 6367,
      "Ġhard": 6368,
      "conn": 6369,
      "Ġenv": 6370,
      "Ġcomparison": 6371,
      "Ġ97": 6372,
      "Ġsearching": 6373,
      "[:-": 6374,
      "linalg": 6375,
      "Ġreading": 6376,
      "clean": 6377,
      "Ġcalls": 6378,
      "++){\\": 6379,
      "Subject": 6380,
      "Ġcapture": 6381,
      "Ġpartition": 6382,
      "nvoid": 6383,
      "Ġadjacent": 6384,
      "ĠInitializing": 6385,
      "symb": 6386,
      "Ġdimensions": 6387,
      "required": 6388,
      "separated": 6389,
      "Ġmathematical": 6390,
      "!\")": 6391,
      "95": 6392,
      "AG": 6393,
      "Dropout": 6394,
      "Generator": 6395,
      "LS": 6396,
      "eval": 6397,
      "fernet": 6398,
      "imag": 6399,
      "vari": 6400,
      "stdio": 6401,
      "Ġclo": 6402,
      "rag": 6403,
      "Ġplease": 6404,
      "tick": 6405,
      "Ġeli": 6406,
      "Ġevalu": 6407,
      "Ġforward": 6408,
      "Ġgl": 6409,
      "ĠSome": 6410,
      "Ġexplain": 6411,
      "Ġbehavi": 6412,
      "ĠRuby": 6413,
      "Ġbytes": 6414,
      "paths": 6415,
      "Ġattemp": 6416,
      "Ġreverses": 6417,
      "Reader": 6418,
      "Ġsystems": 6419,
      "Ġassist": 6420,
      "webdriver": 6421,
      "nCREATE": 6422,
      "ĠOpenCV": 6423,
      "Ġeditor": 6424,
      "gnore": 6425,
      "Ġseparator": 6426,
      "Ġfigure": 6427,
      "dependent": 6428,
      "\"}": 6429,
      "\"][": 6430,
      "?)": 6431,
      "Empty": 6432,
      "Page": 6433,
      "sd": 6434,
      "step": 6435,
      "tbody": 6436,
      "uch": 6437,
      "Ġ``": 6438,
      "ratic": 6439,
      "ĠPage": 6440,
      "Ġbi": 6441,
      "analyzer": 6442,
      "nprime": 6443,
      "ĠCOUNT": 6444,
      "ĠAny": 6445,
      "Ġ44": 6446,
      "redential": 6447,
      "Ġpointer": 6448,
      "Ġnearest": 6449,
      "mongo": 6450,
      "Ġoutliers": 6451,
      "minutes": 6452,
      "Ġscan": 6453,
      "Ġ2020": 6454,
      "Ġroom": 6455,
      "Sequence": 6456,
      "Ġdivisors": 6457,
      "hostname": 6458,
      "ĠTraining": 6459,
      "Ġstdout": 6460,
      "Ġpsycopg": 6461,
      "Ġsupports": 6462,
      "Ġrecognition": 6463,
      "Ġstoring": 6464,
      "Ġcosine": 6465,
      "ĠMongoDB": 6466,
      "NAME": 6467,
      "ĠIdentify": 6468,
      "#$": 6469,
      "'},": 6470,
      "({": 6471,
      "AS": 6472,
      "Module": 6473,
      "gres": 6474,
      "hook": 6475,
      "kernel": 6476,
      "mory": 6477,
      "ntable": 6478,
      "nquery": 6479,
      "sc": 6480,
      "zure": 6481,
      "Ġcarry": 6482,
      "Ġclear": 6483,
      "Ġtic": 6484,
      "Ġpow": 6485,
      "Ġ'_": 6486,
      "Ġlcm": 6487,
      "Ġ55": 6488,
      "ncipher": 6489,
      "ĠLib": 6490,
      "acc": 6491,
      "neutral": 6492,
      "Ġfaces": 6493,
      "....": 6494,
      "nagram": 6495,
      "Ġdifferences": 6496,
      "ĠSQLite": 6497,
      "uffer": 6498,
      "Ġscience": 6499,
      "Ġsaved": 6500,
      "Ġflattened": 6501,
      "Ġsignal": 6502,
      "Ġdelta": 6503,
      "tification": 6504,
      "vanced": 6505,
      "Ġdefines": 6506,
      "Ġmeasure": 6507,
      ")\")\\": 6508,
      "07": 6509,
      "CC": 6510,
      "[],": 6511,
      "]],": 6512,
      "cut": 6513,
      "elif": 6514,
      "nWrite": 6515,
      "sil": 6516,
      "sively": 6517,
      "Ġali": 6518,
      "Ġcities": 6519,
      "Ġctx": 6520,
      "Ġslice": 6521,
      "Ġreference": 6522,
      "ges": 6523,
      "mployees": 6524,
      "Ġeff": 6525,
      "Ġ\"_": 6526,
      "nfig": 6527,
      "nfeatures": 6528,
      "ĠStep": 6529,
      "Ġdecor": 6530,
      "cipher": 6531,
      "ĠRectangle": 6532,
      "ĠThese": 6533,
      "abling": 6534,
      "tivate": 6535,
      "computer": 6536,
      "Ġroots": 6537,
      "Ġtokenizer": 6538,
      "swers": 6539,
      "nWe": 6540,
      "questions": 6541,
      "Ġteam": 6542,
      "Ġtell": 6543,
      "Ġshows": 6544,
      "Maximum": 6545,
      "Account": 6546,
      "tificial": 6547,
      "ĠMatrix": 6548,
      "HTTPRequestHandler": 6549,
      "123456789": 6550,
      ".\"": 6551,
      "400": 6552,
      "57": 6553,
      "98": 6554,
      ":/": 6555,
      ":])\\": 6556,
      "AF": 6557,
      "AX": 6558,
      "Autom": 6559,
      "Lin": 6560,
      "OIN": 6561,
      "Pre": 6562,
      "Year": 6563,
      "cket": 6564,
      "lp": 6565,
      "mango": 6566,
      "nU": 6567,
      "nlinks": 6568,
      "tera": 6569,
      "Ġ=\",": 6570,
      "Ġchecked": 6571,
      "lian": 6572,
      "sep": 6573,
      "Ġwarning": 6574,
      "cherry": 6575,
      "Ġgray": 6576,
      "very": 6577,
      "endswith": 6578,
      "resses": 6579,
      "Ġmac": 6580,
      "Ġexact": 6581,
      "cessed": 6582,
      "Ġtexts": 6583,
      "ĠOther": 6584,
      "profit": 6585,
      "arrays": 6586,
      "summary": 6587,
      "licing": 6588,
      "Ġskills": 6589,
      "aming": 6590,
      "]).": 6591,
      "subprocess": 6592,
      "Ġsuit": 6593,
      "rectangle": 6594,
      "10000": 6595,
      "figure": 6596,
      "ocker": 6597,
      "Argument": 6598,
      "ĠquickSort": 6599,
      "ĠĠĠĠĠĠĠĠĠĠĠĠĠĠĠĠĠĠĠĠĠĠĠĠĠĠĠĠĠĠĠĠĠĠ": 6600,
      "IMIT": 6601,
      "Charm": 6602,
      "Month": 6603,
      "elephant": 6604,
      "Ġneighbor": 6605,
      "components": 6606,
      "redentials": 6607,
      "/(": 6608,
      "Dig": 6609,
      "DELETE": 6610,
      "Predi": 6611,
      "Vec": 6612,
      "\\'": 6613,
      "]}\\": 6614,
      "aw": 6615,
      "classes": 6616,
      "dc": 6617,
      "four": 6618,
      "opt": 6619,
      "slice": 6620,
      "traction": 6621,
      "thost": 6622,
      "original": 6623,
      "Ġpse": 6624,
      "Ġwindows": 6625,
      "Ġdid": 6626,
      "berry": 6627,
      "Ġ37": 6628,
      "(\"-": 6629,
      "Ġstra": 6630,
      "Ġ`.": 6631,
      "alies": 6632,
      "reduce": 6633,
      "haracter": 6634,
      "abled": 6635,
      "abcd": 6636,
      "Ġdisk": 6637,
      "frequencies": 6638,
      "Ġcorpus": 6639,
      "Ġheadline": 6640,
      "ĠSelect": 6641,
      "gnitude": 6642,
      "Student": 6643,
      "Ġgenre": 6644,
      "ĠAlgorithm": 6645,
      "versal": 6646,
      "Ġadjust": 6647,
      "Ġcommunic": 6648,
      "Ġconstraints": 6649,
      "Duplicates": 6650,
      "Ġredirect": 6651,
      "COLOR": 6652,
      "Ġmaintain": 6653,
      "!',": 6654,
      "\"),": 6655,
      "(.*": 6656,
      "48": 6657,
      ":]:\\": 6658,
      "Close": 6659,
      "NU": 6660,
      "OD": 6661,
      "PDF": 6662,
      "Sh": 6663,
      "eq": 6664,
      "eys": 6665,
      "family": 6666,
      "kdir": 6667,
      "tmp": 6668,
      "while": 6669,
      "}_": 6670,
      "orical": 6671,
      "ratings": 6672,
      "atType": 6673,
      "Ġreq": 6674,
      "Ġtoo": 6675,
      "Ġduring": 6676,
      "Ġborder": 6677,
      "gray": 6678,
      "nfa": 6679,
      "Ġ{:.": 6680,
      "ĠCircle": 6681,
      "ascal": 6682,
      "ircu": 6683,
      "icon": 6684,
      "Ġparen": 6685,
      "Ġsumm": 6686,
      "mote": 6687,
      "ddit": 6688,
      "Ġchoose": 6689,
      "ocab": 6690,
      "Ġprevent": 6691,
      "Ġacc": 6692,
      "ĠĠĠĠĠĠĠĠĠĠĠĠĠĠĠĠĠĠ": 6693,
      "Ġexecutable": 6694,
      "Ġbool": 6695,
      "ĠInstall": 6696,
      "INET": 6697,
      "astype": 6698,
      "Ġautomated": 6699,
      "Computer": 6700,
      "employee": 6701,
      "amplerate": 6702,
      "Ġproperly": 6703,
      "Format": 6704,
      "Ġplan": 6705,
      "labor": 6706,
      "Ġconsists": 6707,
      "onyms": 6708,
      "(('": 6709,
      "Event": 6710,
      "Flatten": 6711,
      "GCD": 6712,
      "Path": 6713,
      "Sto": 6714,
      "Video": 6715,
      "Variable": 6716,
      "[@": 6717,
      "ised": 6718,
      "yes": 6719,
      "Ġsf": 6720,
      "Ġredu": 6721,
      "Ġmarket": 6722,
      "Ġ'')\\": 6723,
      "ĠTry": 6724,
      "ĠTask": 6725,
      "ĠCopy": 6726,
      "ĠIN": 6727,
      "ĠSentence": 6728,
      "Ġhour": 6729,
      "ĠDevelop": 6730,
      "coming": 6731,
      "Ġclassified": 6732,
      "ĠBubble": 6733,
      "ĠRed": 6734,
      ")))": 6735,
      "subject": 6736,
      "Ġpymongo": 6737,
      "Ġ})\\": 6738,
      "nInput": 6739,
      "Ġsizeof": 6740,
      "Ġauto": 6741,
      "itera": 6742,
      "Ġgoing": 6743,
      "Ġwinner": 6744,
      "destination": 6745,
      "Audio": 6746,
      "Ġclustering": 6747,
      "marize": 6748,
      "equal": 6749,
      "GRAY": 6750,
      "NotFound": 6751,
      "Ġreplaces": 6752,
      "Equal": 6753,
      "Ġassociated": 6754,
      "ĠDESC": 6755,
      "NotFoundError": 6756,
      "06": 6757,
      "49": 6758,
      "<?": 6759,
      "Box": 6760,
      "DATE": 6761,
      "GL": 6762,
      "Lay": 6763,
      "Transform": 6764,
      "ZipFile": 6765,
      "[[": 6766,
      "ass": 6767,
      "calc": 6768,
      "dos": 6769,
      "floor": 6770,
      "gend": 6771,
      "glob": 6772,
      "mt": 6773,
      "mse": 6774,
      "pk": 6775,
      "rong": 6776,
      "tz": 6777,
      "try": 6778,
      "tColor": 6779,
      "Ġapt": 6780,
      "Ġslicing": 6781,
      "alth": 6782,
      "gethost": 6783,
      "Ġmouse": 6784,
      "ceive": 6785,
      "uniform": 6786,
      "versing": 6787,
      "Ġangle": 6788,
      "grades": 6789,
      "vex": 6790,
      "ĠTake": 6791,
      "ĠImp": 6792,
      "Ġalphanumeric": 6793,
      "ĠSimple": 6794,
      "blems": 6795,
      "tool": 6796,
      "pache": 6797,
      "energy": 6798,
      "Ġextend": 6799,
      "()))\\": 6800,
      "sition": 6801,
      "ĠfindMax": 6802,
      "Ġchoices": 6803,
      "Ġnewline": 6804,
      "contrib": 6805,
      "Ġcompat": 6806,
      "Ġrules": 6807,
      "short": 6808,
      "Ġlaunch": 6809,
      "ĠRegression": 6810,
      "avor": 6811,
      "classify": 6812,
      "Ġgreet": 6813,
      "unctuations": 6814,
      "Ġevents": 6815,
      "Ġfrequently": 6816,
      "ĠProgramming": 6817,
      "installing": 6818,
      "================================================================": 6819,
      "Ġvisualize": 6820,
      "Ġlisten": 6821,
      "nGROUP": 6822,
      "Ġgeo": 6823,
      "Ġunittest": 6824,
      "Ġhyper": 6825,
      "Ġexperience": 6826,
      "Ġdetermines": 6827,
      "LOGGER": 6828,
      "Translate": 6829,
      "recursive": 6830,
      "Ġbrackets": 6831,
      "silent": 6832,
      ".',": 6833,
      "BGR": 6834,
      "CM": 6835,
      "Current": 6836,
      "JSON": 6837,
      "ders": 6838,
      "flatten": 6839,
      "gent": 6840,
      "ips": 6841,
      "ker": 6842,
      "Ġari": 6843,
      "onal": 6844,
      "orage": 6845,
      "Ġcy": 6846,
      "Ġsending": 6847,
      "Ġschema": 6848,
      "Ġmilli": 6849,
      "Ġ'#": 6850,
      "iler": 6851,
      "ĠTemp": 6852,
      "ĠShow": 6853,
      "ascript": 6854,
      "ascending": 6855,
      "iding": 6856,
      "Ġjumped": 6857,
      "racti": 6858,
      "Ġseaborn": 6859,
      "Ġchanging": 6860,
      "ĠBash": 6861,
      "Ġuseful": 6862,
      "dates": 6863,
      "Ġqueries": 6864,
      "ĠmyList": 6865,
      "Ġperi": 6866,
      "job": 6867,
      "Ġresponses": 6868,
      "Ġvariance": 6869,
      "Ġdiscount": 6870,
      "Ġ});\\": 6871,
      "ĠConv": 6872,
      "ĠInte": 6873,
      "Ġmultiples": 6874,
      "Produce": 6875,
      "latest": 6876,
      "Debug": 6877,
      "Ġbackend": 6878,
      "ĠPyCharm": 6879,
      "lemmat": 6880,
      "ALL": 6881,
      "thead": 6882,
      "Ġrecursively": 6883,
      "Ġgroups": 6884,
      "cvtColor": 6885,
      "Ġreceived": 6886,
      "#$%": 6887,
      "'},\\": 6888,
      "04": 6889,
      "LD": 6890,
      "Obj": 6891,
      "Top": 6892,
      "Version": 6893,
      "]',": 6894,
      "nusername": 6895,
      "nreverse": 6896,
      "ple": 6897,
      "orry": 6898,
      "ens": 6899,
      "Ġcredit": 6900,
      "Ġnor": 6901,
      "algorithm": 6902,
      "metic": 6903,
      "Ġol": 6904,
      "ĠPop": 6905,
      "Ġ\"*": 6906,
      "ilter": 6907,
      "Ġ(`": 6908,
      "ĠClose": 6909,
      "resented": 6910,
      "ĠItem": 6911,
      "Ġcoins": 6912,
      "ĠStr": 6913,
      "ĠSpec": 6914,
      "Ġresources": 6915,
      "ĠFe": 6916,
      "temmer": 6917,
      "pand": 6918,
      "Ġdegree": 6919,
      "ĠRoman": 6920,
      "Ġones": 6921,
      "pool": 6922,
      "avascript": 6923,
      "ternatively": 6924,
      "logy": 6925,
      "nAs": 6926,
      "fact": 6927,
      "fault": 6928,
      "Ġstatements": 6929,
      "Ġdeploy": 6930,
      "handling": 6931,
      "Ġexceptions": 6932,
      "written": 6933,
      "Ġhexadecimal": 6934,
      "ĠMatplotlib": 6935,
      "pository": 6936,
      "ĠMonty": 6937,
      "nitems": 6938,
      "Depth": 6939,
      "riginal": 6940,
      "03": 6941,
      "120": 6942,
      "=?": 6943,
      "Anagram": 6944,
      "]):": 6945,
      "air": 6946,
      "em": 6947,
      "nM": 6948,
      "nz": 6949,
      "nexport": 6950,
      "}')": 6951,
      "ero": 6952,
      "Ġsid": 6953,
      "Ġinverse": 6954,
      "Ġpan": 6955,
      "rible": 6956,
      "ceed": 6957,
      "Ġbug": 6958,
      "Ġbirth": 6959,
      "Ġ\"$": 6960,
      "npara": 6961,
      "Ġratio": 6962,
      "(':": 6963,
      "__':": 6964,
      "Ġpay": 6965,
      "tail": 6966,
      "force": 6967,
      "Ġhidden": 6968,
      "Ġloo": 6969,
      ")).": 6970,
      "neven": 6971,
      "licy": 6972,
      "maximum": 6973,
      "Ġupdating": 6974,
      "charge": 6975,
      "Ġsecret": 6976,
      "Ġinstances": 6977,
      "bytes": 6978,
      "Ġexplo": 6979,
      "classification": 6980,
      "menu": 6981,
      "Ġrequires": 6982,
      "Ġhigher": 6983,
      "Ġconnected": 6984,
      "greg": 6985,
      "Identify": 6986,
      "Ġiterating": 6987,
      "Ġboto": 6988,
      "ncurrent": 6989,
      "chedul": 6990,
      "ĠImplementing": 6991,
      "Ġvirtualenv": 6992,
      "Ġcells": 6993,
      "Ġprocessed": 6994,
      "Ġrespectively": 6995,
      "AuthHandler": 6996,
      "signal": 6997,
      "ttsx": 6998,
      "Male": 6999,
      "Parse": 7000,
      "Person": 7001,
      "RT": 7002,
      "VER": 7003,
      "Yes": 7004,
      "bl": 7005,
      "hum": 7006,
      "hours": 7007,
      "nse": 7008,
      "ntokenizer": 7009,
      "ym": 7010,
      "thmetic": 7011,
      "teri": 7012,
      "enters": 7013,
      "Ġdt": 7014,
      "analysis": 7015,
      "ctrl": 7016,
      "ulating": 7017,
      "nip": 7018,
      "Ġlr": 7019,
      "mazing": 7020,
      "ota": 7021,
      "ĠCalculator": 7022,
      "ublished": 7023,
      "Ġwithdraw": 7024,
      "Ġleap": 7025,
      "ĠBy": 7026,
      "))]\\": 7027,
      "imer": 7028,
      "neighb": 7029,
      "Ġneighbors": 7030,
      "Ġshopping": 7031,
      "ĠThere": 7032,
      "Ġcalculated": 7033,
      "ĠGo": 7034,
      "Inter": 7035,
      "Ġdoing": 7036,
      "ticket": 7037,
      "ondon": 7038,
      "logging": 7039,
      "ĉĉĉĉ": 7040,
      "nSo": 7041,
      "Ġgrad": 7042,
      "mended": 7043,
      "Ġinstalling": 7044,
      "Ġinteractive": 7045,
      "matches": 7046,
      "Ġextra": 7047,
      "anagrams": 7048,
      "Ġeasier": 7049,
      "Ġscalar": 7050,
      "Ġwrapper": 7051,
      "Ġswapped": 7052,
      "Ġchain": 7053,
      "Ġperiod": 7054,
      "Dif": 7055,
      "MS": 7056,
      "So": 7057,
      "Score": 7058,
      "Socket": 7059,
      "birth": 7060,
      "each": 7061,
      "nvalues": 7062,
      "nmost": 7063,
      "par": 7064,
      "steps": 7065,
      "tw": 7066,
      "wer": 7067,
      "}',": 7068,
      "inp": 7069,
      "thes": 7070,
      "teen": 7071,
      "team": 7072,
      "Ġcnt": 7073,
      "Ġfurther": 7074,
      "Ġith": 7075,
      "Ġpat": 7076,
      "Ġnorm": 7077,
      "rive": 7078,
      "chron": 7079,
      "nplayer": 7080,
      "isbn": 7081,
      "Ġanalyzer": 7082,
      "numpy": 7083,
      "__\":": 7084,
      "Ġmaze": 7085,
      "Ġasking": 7086,
      "identi": 7087,
      "nsns": 7088,
      "Ġutili": 7089,
      "Ġdemonstrates": 7090,
      "tach": 7091,
      "readth": 7092,
      "ĠĠĠĠĠĠĠĠĠĠĠĠĠĠĠĠĠĠĠĠĠ": 7093,
      "ĠRequest": 7094,
      "Ġ/=": 7095,
      "\");": 7096,
      "Replace": 7097,
      "collection": 7098,
      "ntts": 7099,
      "nAny": 7100,
      "eep": 7101,
      "ĠCont": 7102,
      "Ġtrading": 7103,
      "Ġcalling": 7104,
      "ĠDataset": 7105,
      "Ġsymp": 7106,
      "nknn": 7107,
      "âĢĿ": 7108,
      "Ġextraction": 7109,
      "Ġplaceholder": 7110,
      "Ġrotation": 7111,
      "Ġmembers": 7112,
      "Ġcoefficients": 7113,
      "nThanks": 7114,
      "09": 7115,
      "150": 7116,
      "47": 7117,
      "AI": 7118,
      "Manager": 7119,
      "NS": 7120,
      "black": 7121,
      "gg": 7122,
      "nencrypted": 7123,
      "oom": 7124,
      "tt": 7125,
      "Ġutf": 7126,
      "recv": 7127,
      "tected": 7128,
      "Ġinher": 7129,
      "Ġpixel": 7130,
      "lier": 7131,
      "alchemy": 7132,
      "Ġ\");\\": 7133,
      "land": 7134,
      "ĠisPalindrome": 7135,
      "Ġ($": 7136,
      "resource": 7137,
      "Ġcourses": 7138,
      "Ġconcept": 7139,
      "ĠSecond": 7140,
      "Ġ48": 7141,
      "ĠDiv": 7142,
      "ĠMIM": 7143,
      "lying": 7144,
      "Ġ85": 7145,
      "Ġ%(": 7146,
      "ocode": 7147,
      "perimeter": 7148,
      "aving": 7149,
      "ntrans": 7150,
      "formatted": 7151,
      "Ġverify": 7152,
      "derr": 7153,
      "ĠPrints": 7154,
      "Ġextracting": 7155,
      "ralle": 7156,
      "ĠInteger": 7157,
      "foli": 7158,
      "Ġregister": 7159,
      "Ġpalindromes": 7160,
      "Ġciphertext": 7161,
      "nkmeans": 7162,
      "CharField": 7163,
      "lsx": 7164,
      "purchase": 7165,
      "etrieve": 7166,
      "Ġscientist": 7167,
      ".-]+\\.[": 7168,
      "08": 7169,
      "0123456789": 7170,
      "<>": 7171,
      "AE": 7172,
      "BN": 7173,
      "Cor": 7174,
      "Each": 7175,
      "HA": 7176,
      "ODO": 7177,
      "PS": 7178,
      "Perform": 7179,
      "Some": 7180,
      "]])": 7181,
      "bine": 7182,
      "llig": 7183,
      "nstrings": 7184,
      "naccess": 7185,
      "ools": 7186,
      "vation": 7187,
      "wall": 7188,
      "threshold": 7189,
      "Ġtutorial": 7190,
      "Ġdue": 7191,
      "Ġoften": 7192,
      "unit": 7193,
      "Ġblack": 7194,
      "Ġgoogle": 7195,
      "usage": 7196,
      "Ġyes": 7197,
      "Ġresource": 7198,
      "Ġresolve": 7199,
      "ĠFlatten": 7200,
      "ncap": 7201,
      "Ġmemo": 7202,
      "apply": 7203,
      "Ġdeposit": 7204,
      "ope": 7205,
      "Ġdirectories": 7206,
      "Ġnotation": 7207,
      "ĠLanguage": 7208,
      "Ġorgan": 7209,
      "alculating": 7210,
      "ĠMi": 7211,
      "imate": 7212,
      "ĠJu": 7213,
      "ĠĠĠĠĠĠĠĠĠĠĠĠĠĠĠĠĠĠĠĠ": 7214,
      "Ġupload": 7215,
      "Ġpyttsx": 7216,
      "ĠComple": 7217,
      "alindrom": 7218,
      "refore": 7219,
      "Ġpasswd": 7220,
      "ategory": 7221,
      "ports": 7222,
      "Ġplaces": 7223,
      "nNow": 7224,
      "pipeline": 7225,
      "Ġviews": 7226,
      "Ġstorage": 7227,
      "Ġmanipulate": 7228,
      "Returns": 7229,
      "Ġguide": 7230,
      "\"><": 7231,
      "%+-]+@[": 7232,
      "54": 7233,
      "DAT": 7234,
      "FO": 7235,
      "Goodbye": 7236,
      "Option": 7237,
      "QU": 7238,
      "TF": 7239,
      "Upper": 7240,
      "Ver": 7241,
      "Vowels": 7242,
      "batch": 7243,
      "gb": 7244,
      "hold": 7245,
      "ki": 7246,
      "nlongest": 7247,
      "rd": 7248,
      "uro": 7249,
      "inner": 7250,
      "Ġthings": 7251,
      "Ġcircumference": 7252,
      "Ġpig": 7253,
      "Ġmuch": 7254,
      "Ġbro": 7255,
      "nprice": 7256,
      "Ġrank": 7257,
      "Ġartist": 7258,
      "nfind": 7259,
      "nfirst": 7260,
      "ĠTitle": 7261,
      "ĠImplemented": 7262,
      "001": 7263,
      "Ġdice": 7264,
      "Ġsequences": 7265,
      "ĠObject": 7266,
      "ĠHash": 7267,
      "Ġbyte": 7268,
      "Ġacross": 7269,
      "Ġ95": 7270,
      "ĠJOIN": 7271,
      "ĠReg": 7272,
      "Ġcontainer": 7273,
      "placeholder": 7274,
      "subset": 7275,
      "Ġsearches": 7276,
      "Ġrepresented": 7277,
      "Ġmeaning": 7278,
      "latin": 7279,
      "Ġdescri": 7280,
      "food": 7281,
      "Ġreplaced": 7282,
      "._%+-]+@[": 7283,
      "Ġsamples": 7284,
      "greSQL": 7285,
      "Ġparsing": 7286,
      "ORT": 7287,
      "npygame": 7288,
      "genre": 7289,
      "Ġoptional": 7290,
      "Head": 7291,
      "Ġlater": 7292,
      "Ġrecommended": 7293,
      "Adam": 7294,
      "Ġanimals": 7295,
      "Ġdynamic": 7296,
      "ĠCaesar": 7297,
      "Ġquadratic": 7298,
      "avorite": 7299,
      "Ġarithmetic": 7300,
      "Ġsympy": 7301,
      "folio": 7302,
      "alindromic": 7303,
      "26": 7304,
      "BC": 7305,
      "Binary": 7306,
      "HE": 7307,
      "Ins": 7308,
      "Task": 7309,
      "highest": 7310,
      "helper": 7311,
      "ka": 7312,
      "lang": 7313,
      "sudo": 7314,
      "ons": 7315,
      "Ġcloud": 7316,
      "Ġinplace": 7317,
      "Ġrepository": 7318,
      "metadata": 7319,
      "ĠPer": 7320,
      "usion": 7321,
      "islower": 7322,
      "oll": 7323,
      "Ġcoin": 7324,
      "Ġcook": 7325,
      "ĠForest": 7326,
      "tential": 7327,
      "Ġmeta": 7328,
      "()).": 7329,
      "Ġhor": 7330,
      "ĠEuclidean": 7331,
      "Ġshuff": 7332,
      "aper": 7333,
      "Ġcompo": 7334,
      "ĠGit": 7335,
      "Ġskip": 7336,
      "leting": 7337,
      "sock": 7338,
      "Ġfilled": 7339,
      "++;": 7340,
      "nconsumer": 7341,
      "Ġ150": 7342,
      "ĠConstructor": 7343,
      "Ġaux": 7344,
      "undred": 7345,
      "Ġdisplaying": 7346,
      "topic": 7347,
      "static": 7348,
      "auto": 7349,
      "Ġobtain": 7350,
      "Ġallowed": 7351,
      "Ġ(\"%": 7352,
      "MaxPooling": 7353,
      "Ġspell": 7354,
      "Ġconstant": 7355,
      "Ġproperty": 7356,
      "weathermap": 7357,
      "APL": 7358,
      "ucket": 7359,
      "special": 7360,
      "stopwords": 7361,
      "Ġmanipulation": 7362,
      "complete": 7363,
      "Ġrespective": 7364,
      "assertEqual": 7365,
      "Ġcapital": 7366,
      "adoop": 7367,
      "ĠOtherwise": 7368,
      "&*": 7369,
      "(\",": 7370,
      "86": 7371,
      ":])": 7372,
      "?\"\\": 7373,
      "Di": 7374,
      "Gender": 7375,
      "OAuthHandler": 7376,
      "ccur": 7377,
      "ctive": 7378,
      "font": 7379,
      "ntag": 7380,
      "platform": 7381,
      "}%": 7382,
      "Ġ^": 7383,
      "Ġair": 7384,
      "Ġsleep": 7385,
      "Ġfun": 7386,
      "Ġfuture": 7387,
      "Ġ'{}": 7388,
      "ĠSS": 7389,
      "application": 7390,
      "Ġpast": 7391,
      "keywords": 7392,
      "Ġorange": 7393,
      "ĠElement": 7394,
      "Ġscripts": 7395,
      "Ġaddresses": 7396,
      "readlines": 7397,
      "rightness": 7398,
      "Remove": 7399,
      "Recogni": 7400,
      "]);": 7401,
      "Ġlight": 7402,
      "subarray": 7403,
      "responses": 7404,
      "Ġruntime": 7405,
      "STRE": 7406,
      "Ġformats": 7407,
      "Comple": 7408,
      "Ġinterval": 7409,
      "izes": 7410,
      "topics": 7411,
      "ditionally": 7412,
      "ĠYour": 7413,
      "Ġstructures": 7414,
      "struction": 7415,
      "forever": 7416,
      "Ġcapa": 7417,
      "HTML": 7418,
      "ById": 7419,
      "????????": 7420,
      "Ġremote": 7421,
      "################################################################": 7422,
      "ĠScikit": 7423,
      "Ġsubsets": 7424,
      "alphabetic": 7425,
      "Minimum": 7426,
      "Ġrecommendation": 7427,
      "cfg": 7428,
      "Ġanomalies": 7429,
      "Ġbehavior": 7430,
      "ircuit": 7431,
      "lligence": 7432,
      "STREAM": 7433,
      ",'": 7434,
      "@#$%": 7435,
      "Agent": 7436,
      "Employee": 7437,
      "Fizz": 7438,
      "Tra": 7439,
      "bined": 7440,
      "cascade": 7441,
      "which": 7442,
      "xlsx": 7443,
      "Ġzeros": 7444,
      "Ġurlopen": 7445,
      "inclusive": 7446,
      "stream": 7447,
      "Ġcatch": 7448,
      "Ġcmd": 7449,
      "Ġsources": 7450,
      "Ġignore": 7451,
      "ramid": 7452,
      "Ġinstructions": 7453,
      "atin": 7454,
      "atives": 7455,
      "Ġmnist": 7456,
      "unded": 7457,
      "Ġbusiness": 7458,
      "ĠChecked": 7459,
      "Ġprograms": 7460,
      "cos": 7461,
      "coins": 7462,
      "ĠScore": 7463,
      "pace": 7464,
      "ĠAll": 7465,
      "nsort": 7466,
      "Ġhad": 7467,
      "pyter": 7468,
      "Ġ>>": 7469,
      "ĠMa": 7470,
      "settings": 7471,
      "condition": 7472,
      "ĠHer": 7473,
      "updf": 7474,
      "Ġrule": 7475,
      "full": 7476,
      "amera": 7477,
      "Ġendpoints": 7478,
      "Ġexamples": 7479,
      "Ġanyone": 7480,
      "nAfter": 7481,
      "Encoder": 7482,
      "calar": 7483,
      "ĠbinarySearch": 7484,
      "Ġsomeone": 7485,
      "pie": 7486,
      "Ġspacy": 7487,
      "ĠDatabase": 7488,
      "Ġpostfix": 7489,
      "middle": 7490,
      "Ġassum": 7491,
      "Ġdefaultdict": 7492,
      "PORT": 7493,
      "alizes": 7494,
      "ĠApple": 7495,
      "Ġprimary": 7496,
      "handle": 7497,
      "small": 7498,
      "Ġunderstanding": 7499,
      "Failed": 7500,
      "Ġpurpose": 7501,
      "ordinate": 7502,
      "Ġwhole": 7503,
      "cards": 7504,
      "Ġcrawl": 7505,
      "fining": 7506,
      "cellent": 7507,
      "nLIMIT": 7508,
      "xxxxxxxx": 7509,
      "nHowever": 7510,
      "ĠâĢľ": 7511,
      "ÂłÂł": 7512,
      "Success": 7513,
      "uessed": 7514,
      "------\\": 7515,
      "mmatizer": 7516,
      ")',": 7517,
      ".\",": 7518,
      "63": 7519,
      ":')\\": 7520,
      "Buzz": 7521,
      "Cvm": 7522,
      "Frequency": 7523,
      "Ini": 7524,
      "NIST": 7525,
      "SU": 7526,
      "USER": 7527,
      "bum": 7528,
      "basic": 7529,
      "imp": 7530,
      "nCan": 7531,
      "ober": 7532,
      "sparse": 7533,
      "sheet": 7534,
      "uuid": 7535,
      "xl": 7536,
      "you": 7537,
      "eriv": 7538,
      "Ġcentro": 7539,
      "Ġss": 7540,
      "Ġsudo": 7541,
      "Ġflat": 7542,
      "Ġimag": 7543,
      "arrange": 7544,
      "Ġwide": 7545,
      "Ġbt": 7546,
      "ches": 7547,
      "Ġgives": 7548,
      "ety": 7549,
      "Ġconsumer": 7550,
      "ĠSer": 7551,
      "Ġimports": 7552,
      "()['": 7553,
      "Ġjth": 7554,
      "Ġjava": 7555,
      "Ġtaking": 7556,
      "Ġho": 7557,
      "Ġhelper": 7558,
      "Ġorigin": 7559,
      "ĠOnce": 7560,
      "consecutive": 7561,
      "nelement": 7562,
      "weet": 7563,
      "pointer": 7564,
      "ĠGrid": 7565,
      "1024": 7566,
      "ĠĠĠĠĠĠĠĠĠĠĠĠĠĠĠĠĠĠĠĠĠĠĠĠĠĠĠĠ": 7567,
      "amma": 7568,
      "Ġpercent": 7569,
      "Ġperimeter": 7570,
      "Ġtests": 7571,
      "tivation": 7572,
      "Ġreadable": 7573,
      "Ġoperating": 7574,
      "Session": 7575,
      "Ġtrailing": 7576,
      "openweathermap": 7577,
      "unctools": 7578,
      "Ġbuilding": 7579,
      "Ġmultiplied": 7580,
      "Ġfitness": 7581,
      "nBut": 7582,
      "ultiply": 7583,
      "ĠArrayList": 7584,
      "Ġtracking": 7585,
      "occurrence": 7586,
      "Loop": 7587,
      "Ġdistributed": 7588,
      "ĠGeneral": 7589,
      "Ġcorrelation": 7590,
      "ambda": 7591,
      "umulative": 7592,
      "thesis": 7593,
      "Cvmfs": 7594,
      "Cell": 7595,
      "Day": 7596,
      "Embedding": 7597,
      "]`": 7598,
      "^[": 7599,
      "eam": 7600,
      "guess": 7601,
      "nengine": 7602,
      "vt": 7603,
      "orter": 7604,
      "Ġche": 7605,
      "Ġcast": 7606,
      "Ġsamplerate": 7607,
      "Ġfla": 7608,
      "Ġinp": 7609,
      "Ġindependent": 7610,
      "Ġpress": 7611,
      "atus": 7612,
      "Ġreceive": 7613,
      "utc": 7614,
      "loper": 7615,
      "une": 7616,
      "Ġisbn": 7617,
      "etween": 7618,
      "grams": 7619,
      "ĠCity": 7620,
      "Ġascii": 7621,
      "ĠServer": 7622,
      "ĠFound": 7623,
      "Ġbeautiful": 7624,
      "ĠBut": 7625,
      "sonants": 7626,
      "temperatures": 7627,
      "Ġquotes": 7628,
      "Ġending": 7629,
      "Connection": 7630,
      "ablish": 7631,
      "subsequence": 7632,
      "Ġservices": 7633,
      "PIPE": 7634,
      "linspace": 7635,
      "Ġmanually": 7636,
      "Ġpredicts": 7637,
      "Ġclosed": 7638,
      "tfidf": 7639,
      "Ġgenetic": 7640,
      "192": 7641,
      "Ġpowerful": 7642,
      "numeric": 7643,
      "Regressor": 7644,
      "built": 7645,
      "ĠTriangle": 7646,
      "Letter": 7647,
      "FILE": 7648,
      "ĠTkinter": 7649,
      "Ġlooks": 7650,
      "@#$%^": 7651,
      "=',": 7652,
      ">')\\": 7653,
      "BU": 7654,
      "Document": 7655,
      "Entry": 7656,
      "IOU": 7657,
      "Last": 7658,
      "Link": 7659,
      "Split": 7660,
      "Salary": 7661,
      "_\\": 7662,
      "bb": 7663,
      "bab": 7664,
      "cube": 7665,
      "pu": 7666,
      "rp": 7667,
      "udio": 7668,
      "Ġri": 7669,
      "inv": 7670,
      "Ġani": 7671,
      "rep": 7672,
      "tet": 7673,
      "oring": 7674,
      "ength": 7675,
      "Ġcl": 7676,
      "Ġful": 7677,
      "rank": 7678,
      "attrib": 7679,
      "Ġwrong": 7680,
      "ĠTer": 7681,
      "ĠApi": 7682,
      "Ġmetadata": 7683,
      "Ġdeleting": 7684,
      "Ġ43": 7685,
      "()')\\": 7686,
      "ednes": 7687,
      "Ġsegment": 7688,
      "ĠMerge": 7689,
      "Ġshop": 7690,
      "')(": 7691,
      "']))\\": 7692,
      "Ġactive": 7693,
      "Ġ99": 7694,
      "Ġkmeans": 7695,
      "udget": 7696,
      "ĠreverseString": 7697,
      "substrings": 7698,
      "ternet": 7699,
      "Ġ10000": 7700,
      "company": 7701,
      "ĠIndex": 7702,
      "Ġnoun": 7703,
      "Ġcallback": 7704,
      "Ġtopics": 7705,
      "Ġoccurred": 7706,
      "Ġoccurring": 7707,
      "Ġstructured": 7708,
      "Demonstrate": 7709,
      "Ġloading": 7710,
      "greeting": 7711,
      "Ġchanged": 7712,
      "theses": 7713,
      "Analyze": 7714,
      "Resource": 7715,
      "ĠQuick": 7716,
      "irefox": 7717,
      "Ġcards": 7718,
      "racecar": 7719,
      "Ġhuman": 7720,
      "percentage": 7721,
      "ĠTranslator": 7722,
      "Ġdenominator": 7723,
      "recognition": 7724,
      "Tokenizer": 7725,
      "getElementById": 7726,
      "./": 7727,
      "56": 7728,
      "ANT": 7729,
      "Cipher": 7730,
      "Doe": 7731,
      "LSTM": 7732,
      "Rating": 7733,
      "aily": 7734,
      "dl": 7735,
      "flag": 7736,
      "nde": 7737,
      "ners": 7738,
      "nmsg": 7739,
      "sDict": 7740,
      "Ġ);\\": 7741,
      "inst": 7742,
      "increasing": 7743,
      "stract": 7744,
      "Ġfruit": 7745,
      "Ġflight": 7746,
      "leet": 7747,
      "ats": 7748,
      "atype": 7749,
      "ndiv": 7750,
      "Ġdrop": 7751,
      "Ġbank": 7752,
      "Ġbreed": 7753,
      "Ġ\"#": 7754,
      "lare": 7755,
      "chan": 7756,
      "Ġglob": 7757,
      "ames": 7758,
      "ions": 7759,
      "dic": 7760,
      "adj": 7761,
      "oting": 7762,
      "Ġmask": 7763,
      "Ġmagnitude": 7764,
      "Ġconcat": 7765,
      "nscaler": 7766,
      "ncode": 7767,
      "ifest": 7768,
      "Ġmedi": 7769,
      "simple": 7770,
      "oney": 7771,
      "cise": 7772,
      "Ġlogs": 7773,
      "pyxl": 7774,
      "Ġpool": 7775,
      "nections": 7776,
      "oost": 7777,
      "headline": 7778,
      "arization": 7779,
      "female": 7780,
      "Ġcurrently": 7781,
      "Ġfeel": 7782,
      "nbubble": 7783,
      "ĠKeras": 7784,
      "piral": 7785,
      "Provide": 7786,
      "Ġdisplayed": 7787,
      "dirs": 7788,
      "virtual": 7789,
      "Median": 7790,
      "Ġassert": 7791,
      "Ġtranslation": 7792,
      "Ġtransfer": 7793,
      "solve": 7794,
      "region": 7795,
      "wards": 7796,
      "Chars": 7797,
      "merce": 7798,
      "Address": 7799,
      "ĠIncre": 7800,
      "permutation": 7801,
      "Ġpolynomial": 7802,
      "ĠTreeNode": 7803,
      "ĠThread": 7804,
      "Ġdecoded": 7805,
      "Ġdecrypt": 7806,
      "merged": 7807,
      "Ġnetworks": 7808,
      "cupation": 7809,
      "VideoCapture": 7810,
      "Layout": 7811,
      "rallel": 7812,
      "+\"": 7813,
      "Cost": 7814,
      "Draw": 7815,
      "NO": 7816,
      "Series": 7817,
      "Tube": 7818,
      "_\\_": 7819,
      "ah": 7820,
      "arange": 7821,
      "bra": 7822,
      "clf": 7823,
      "cloud": 7824,
      "good": 7825,
      "nhost": 7826,
      "null": 7827,
      "ov": 7828,
      "pid": 7829,
      "schema": 7830,
      "ypes": 7831,
      "thread": 7832,
      "Ġamong": 7833,
      "Ġamazing": 7834,
      "remote": 7835,
      "ensitive": 7836,
      "Ġsvm": 7837,
      "Ġpk": 7838,
      "Ġrel": 7839,
      "nders": 7840,
      "Ġwond": 7841,
      "ĠPublic": 7842,
      "ĠPlease": 7843,
      "ĠPipeline": 7844,
      "answer": 7845,
      "chat": 7846,
      "isted": 7847,
      "('--": 7848,
      "master": 7849,
      "ĠCrypto": 7850,
      "ĠCalculating": 7851,
      "Ġ<-": 7852,
      "Ġask": 7853,
      "igns": 7854,
      "ĠSMTP": 7855,
      "Ġmechan": 7856,
      "Ġ41": 7857,
      "edit": 7858,
      "Ġseq": 7859,
      "ĠDog": 7860,
      "ĠDropout": 7861,
      "ĠDocker": 7862,
      "comment": 7863,
      "ĠLambda": 7864,
      "ĠMNIST": 7865,
      "active": 7866,
      "Ġcountries": 7867,
      "ĠON": 7868,
      "const": 7869,
      "neg": 7870,
      "Ġstrong": 7871,
      "Ġenable": 7872,
      "ĠGNU": 7873,
      "Ġknown": 7874,
      "Ġendl": 7875,
      "titles": 7876,
      "Ġindexing": 7877,
      "Ġsocial": 7878,
      "Cont": 7879,
      "oise": 7880,
      "Ġ:\",": 7881,
      "react": 7882,
      "ĠExp": 7883,
      "Ġadmin": 7884,
      "ĠYouTube": 7885,
      "Ġ[];\\": 7886,
      "Ġmonitor": 7887,
      "closest": 7888,
      "employees": 7889,
      "Ġthreads": 7890,
      "Ġmoves": 7891,
      "ormalized": 7892,
      "ĠRandomForestRegressor": 7893,
      "Ġsuccessful": 7894,
      "Ġeasily": 7895,
      "Ġdesigned": 7896,
      "Ġheapq": 7897,
      "Ġshapes": 7898,
      "ĠNeural": 7899,
      "ĠGenerating": 7900,
      "Ġedges": 7901,
      "Ġdecrypted": 7902,
      "ĠAudio": 7903,
      "Division": 7904,
      "Ġnavigate": 7905,
      "\"}'\\": 7906,
      "'`": 7907,
      "70": 7908,
      "ASE": 7909,
      "CP": 7910,
      "DD": 7911,
      "NY": 7912,
      "Original": 7913,
      "SG": 7914,
      "Sci": 7915,
      "_{": 7916,
      "pen": 7917,
      "same": 7918,
      "used": 7919,
      "youtube": 7920,
      "});": 7921,
      "rem": 7922,
      "Ġnone": 7923,
      "alt": 7924,
      "memory": 7925,
      "ĠPORT": 7926,
      "uto": 7927,
      "Ġreturning": 7928,
      "nport": 7929,
      "Ġratings": 7930,
      "Ġprofit": 7931,
      "isible": 7932,
      "dice": 7933,
      "direction": 7934,
      "mas": 7935,
      "grad": 7936,
      "resize": 7937,
      "Ġcodes": 7938,
      "(\"{}": 7939,
      "zed": 7940,
      "odb": 7941,
      "(){\\": 7942,
      "sian": 7943,
      "forEach": 7944,
      "Ġsummarize": 7945,
      "Ġsep": 7946,
      "modified": 7947,
      "ĠLSTM": 7948,
      "ĠLCS": 7949,
      "istical": 7950,
      "ourse": 7951,
      "serialize": 7952,
      "accept": 7953,
      "ĠWikipedia": 7954,
      "Ġsubs": 7955,
      "Ġcompound": 7956,
      "Ġtimedelta": 7957,
      "lengths": 7958,
      "\"),\\": 7959,
      "pretrained": 7960,
      "])**": 7961,
      "Ġmodi": 7962,
      "compute": 7963,
      "ĠExecute": 7964,
      "ĠDefining": 7965,
      "interval": 7966,
      "Ġmanner": 7967,
      "Ġoccu": 7968,
      "111": 7969,
      "fromstring": 7970,
      "Ġspecifically": 7971,
      "999": 7972,
      "Ġtranspose": 7973,
      "Ġmultiplies": 7974,
      "SearchCV": 7975,
      "ĠOptimize": 7976,
      "Ġoperators": 7977,
      "overflow": 7978,
      "ĠFileNotFoundError": 7979,
      "Author": 7980,
      "Ġlevels": 7981,
      "(*)": 7982,
      "ĠUnicode": 7983,
      "documents": 7984,
      "Load": 7985,
      "jscomp": 7986,
      "raceback": 7987,
      "nlogging": 7988,
      "ĠPostgreSQL": 7989,
      "ĠEngine": 7990,
      "container": 7991,
      "Ġindentation": 7992,
      "nregressor": 7993,
      "ĠSpark": 7994,
      "Automate": 7995,
      "ednesday": 7996,
      ",}\\": 7997,
      "/',": 7998,
      "As": 7999,
      "Deta": 8000,
      "EG": 8001,
      "Imp": 8002,
      "LA": 8003,
      "Send": 8004,
      "VG": 8005,
      "]}": 8006,
      "fz": 8007,
      "nGenerate": 8008,
      "narea": 8009,
      "ttp": 8010,
      "Ġfg": 8011,
      "Ġfunctools": 8012,
      "raise": 8013,
      "Ġinit": 8014,
      "Ġpracti": 8015,
      "umb": 8016,
      "Ġnx": 8017,
      "allen": 8018,
      "ric": 8019,
      "Ġep": 8020,
      "Ġ\"</": 8021,
      "npip": 8022,
      "Ġ#\\": 8023,
      "Ġanything": 8024,
      "nfibonacci": 8025,
      "Ġvoice": 8026,
      "Ġmapping": 8027,
      "todos": 8028,
      "Ġexclude": 8029,
      "Ġ`'": 8030,
      "Ġleading": 8031,
      "ĠLI": 8032,
      "ĠManager": 8033,
      "Ġsubtraction": 8034,
      "Ġkind": 8035,
      "ĠĠĠĠĠĠĠĠĠĠĠĠĠĠĠĠĠĠĠĠĠĠĠĠĠ": 8036,
      "logger": 8037,
      "Ġmoving": 8038,
      "obby": 8039,
      "calendar": 8040,
      "Ġreadability": 8041,
      "Ġsolving": 8042,
      "Ġequations": 8043,
      "descending": 8044,
      "Ġwebsites": 8045,
      "Ġ|\\": 8046,
      "Compare": 8047,
      "outputs": 8048,
      "disk": 8049,
      "Ġblocks": 8050,
      "rolling": 8051,
      "Ġtyping": 8052,
      "Ġqr": 8053,
      "ĠMethod": 8054,
      "canner": 8055,
      "Ġinvolve": 8056,
      "ĠQuery": 8057,
      "success": 8058,
      "Ġhumidity": 8059,
      "aeiouAE": 8060,
      "contains": 8061,
      "icrosoft": 8062,
      "CRET": 8063,
      "Ġ-*-": 8064,
      "Ġ-*-\\": 8065,
      "ĠVariables": 8066,
      "\"][\"": 8067,
      "Ġalign": 8068,
      "@#$%^&*": 8069,
      "aeiouAEIOU": 8070,
      "!'": 8071,
      "\"+": 8072,
      "Call": 8073,
      "Celsius": 8074,
      "Work": 8075,
      "cery": 8076,
      "house": 8077,
      "nsecond": 8078,
      "say": 8079,
      "wt": 8080,
      "wind": 8081,
      "only": 8082,
      "ordered": 8083,
      "Ġcredentials": 8084,
      "Ġstem": 8085,
      "Ġtr": 8086,
      "Ġrestart": 8087,
      "nding": 8088,
      "Ġmut": 8089,
      "stry": 8090,
      "ĠPassword": 8091,
      "Ġ\");": 8092,
      "ano": 8093,
      "cture": 8094,
      "Ġgot": 8095,
      "istent": 8096,
      "ollow": 8097,
      "nsentences": 8098,
      "tailed": 8099,
      "Ġhel": 8100,
      "Ġ`__": 8101,
      "ĠEach": 8102,
      "ĠEmbedding": 8103,
      "ĠEmployees": 8104,
      "imals": 8105,
      "ĠgetName": 8106,
      "library": 8107,
      "Ġintro": 8108,
      "Ġapple": 8109,
      "Ġpreprocess": 8110,
      "ĠGPIO": 8111,
      "avid": 8112,
      "subplot": 8113,
      "Ġsecs": 8114,
      "Enhance": 8115,
      "fail": 8116,
      "eeded": 8117,
      "compare": 8118,
      "Ġrock": 8119,
      "Ġlogistic": 8120,
      "messages": 8121,
      "ĠInter": 8122,
      "().__": 8123,
      "Ġoccurs": 8124,
      "sqlite": 8125,
      "ĠQt": 8126,
      "Component": 8127,
      "framework": 8128,
      "ĠTesting": 8129,
      "Ġcaesar": 8130,
      "Ġgoes": 8131,
      "luetooth": 8132,
      "Ġprojects": 8133,
      "Ġagent": 8134,
      "3333": 8135,
      "Ġhistorical": 8136,
      "Weight": 8137,
      "Ġshared": 8138,
      "visited": 8139,
      "Ġrolling": 8140,
      "cpu": 8141,
      "repeating": 8142,
      "ĠAndroid": 8143,
      "Ġassistant": 8144,
      "ArgumentParser": 8145,
      "Ġpseud": 8146,
      "(_": 8147,
      "+)": 8148,
      ".')": 8149,
      "2000": 8150,
      "=$": 8151,
      "Extract": 8152,
      "Fr": 8153,
      "Flask": 8154,
      "Friendly": 8155,
      "Longest": 8156,
      "Main": 8157,
      "Needed": 8158,
      "PRO": 8159,
      "Spe": 8160,
      "Wait": 8161,
      "ZE": 8162,
      "done": 8163,
      "nq": 8164,
      "}'": 8165,
      "ìĿ": 8166,
      "Ġ~": 8167,
      "ines": 8168,
      "tesian": 8169,
      "Ġcau": 8170,
      "ndoc": 8171,
      "Ġdic": 8172,
      "Ġbits": 8173,
      "Ġbold": 8174,
      "Ġran": 8175,
      "major": 8176,
      "Ġ()": 8177,
      "ĠClient": 8178,
      "ĠInt": 8179,
      "toarray": 8180,
      "ĠAs": 8181,
      "ĠBST": 8182,
      "ĠBank": 8183,
      "alise": 8184,
      "Ġcounting": 8185,
      "Ġ%.": 8186,
      "Ġpreprocessing": 8187,
      "oston": 8188,
      "uda": 8189,
      "])/": 8190,
      "Ġsecure": 8191,
      "Ġstatistical": 8192,
      "ĠConsole": 8193,
      "dians": 8194,
      "refix": 8195,
      "Ġbuy": 8196,
      "Ġgreen": 8197,
      "abcabc": 8198,
      "\"></": 8199,
      "ormali": 8200,
      "ĠApply": 8201,
      "npredicted": 8202,
      "ĠNumbers": 8203,
      "nTraceback": 8204,
      "versation": 8205,
      "rotate": 8206,
      "ncommand": 8207,
      "Decode": 8208,
      "Ġfinis": 8209,
      "ĠâĢĺ": 8210,
      "Ġconsisting": 8211,
      "Ġhappen": 8212,
      "istener": 8213,
      "Ġindicates": 8214,
      "Ġsatis": 8215,
      "Ġdialogflow": 8216,
      "Digits": 8217,
      "Predicted": 8218,
      "ĠComplex": 8219,
      "=\",": 8220,
      "={}": 8221,
      "City": 8222,
      "Encry": 8223,
      "MO": 8224,
      "RET": 8225,
      "Simple": 8226,
      "Square": 8227,
      "_=\"": 8228,
      "bilities": 8229,
      "between": 8230,
      "cit": 8231,
      "fn": 8232,
      "hidden": 8233,
      "ico": 8234,
      "mouse": 8235,
      "nremove": 8236,
      "nlast": 8237,
      "nrows": 8238,
      "naudio": 8239,
      "pat": 8240,
      "uped": 8241,
      "{:": 8242,
      "Ġ]": 8243,
      "then": 8244,
      "rected": 8245,
      "street": 8246,
      "Ġsensor": 8247,
      "Ġtheta": 8248,
      "Ġtie": 8249,
      "Ġpalindromic": 8250,
      "seed": 8251,
      "alphanumeric": 8252,
      "ndocument": 8253,
      "Ġopt": 8254,
      "ĠPlayer": 8255,
      "anu": 8256,
      "Ġprotocol": 8257,
      "ppy": 8258,
      "ought": 8259,
      "Ġasyn": 8260,
      "Ġalert": 8261,
      "ĠFill": 8262,
      "ĠFTP": 8263,
      "Ġstars": 8264,
      "Ġ56": 8265,
      "keyword": 8266,
      "rench": 8267,
      "people": 8268,
      "more": 8269,
      "ĠDi": 8270,
      "Ġlot": 8271,
      "ĠRetrieve": 8272,
      "ĠMac": 8273,
      "ached": 8274,
      "Ġneutral": 8275,
      "ĠThey": 8276,
      "sums": 8277,
      "udoku": 8278,
      "ands": 8279,
      "Ġlooping": 8280,
      "alized": 8281,
      "nresults": 8282,
      "Ġdiscriminant": 8283,
      "Engine": 8284,
      "nSystem": 8285,
      "vectors": 8286,
      "Ġlogger": 8287,
      "ĠDef": 8288,
      "ngenerate": 8289,
      "Child": 8290,
      "parsed": 8291,
      "Ġpassing": 8292,
      "fiers": 8293,
      "Ġtranslate": 8294,
      "Point": 8295,
      "luster": 8296,
      "Move": 8297,
      "Ġmigra": 8298,
      "ITY": 8299,
      "ĠbubbleSort": 8300,
      "Ġchildren": 8301,
      "Level": 8302,
      "Ġaccordingly": 8303,
      "Ġassigned": 8304,
      "attery": 8305,
      "ĠScience": 8306,
      "Ġiterator": 8307,
      "ĠGradient": 8308,
      "ĠClassifier": 8309,
      "Endpoint": 8310,
      "Ġcommunity": 8311,
      "whitespace": 8312,
      "Ġexponent": 8313,
      "Ġdiagonal": 8314,
      "Ġpickle": 8315,
      "Ġdecorator": 8316,
      "Ġnormal": 8317,
      ")['": 8318,
      ")}\\": 8319,
      "800": 8320,
      ">=": 8321,
      "Animal": 8322,
      "Occur": 8323,
      "PC": 8324,
      "Up": 8325,
      "Url": 8326,
      "free": 8327,
      "gon": 8328,
      "given": 8329,
      "mkdir": 8330,
      "wi": 8331,
      "}$": 8332,
      "Ġaw": 8333,
      "ora": 8334,
      "stit": 8335,
      "Ġthink": 8336,
      "Ġcent": 8337,
      "legend": 8338,
      "Ġpatterns": 8339,
      "tig": 8340,
      "tilize": 8341,
      "Ġembedding": 8342,
      "ssb": 8343,
      "anage": 8344,
      "ĠisAnagram": 8345,
      "Ġlxml": 8346,
      "Ġraised": 8347,
      "mask": 8348,
      "Ġ(?,": 8349,
      "quote": 8350,
      "htag": 8351,
      "coef": 8352,
      "Ġ5000": 8353,
      "ĠAnimal": 8354,
      "Ġmedia": 8355,
      "rength": 8356,
      "Ġmaxlen": 8357,
      "Ġhanoi": 8358,
      "Ġclassifies": 8359,
      "ĠOn": 8360,
      "Ġkeyboard": 8361,
      "Ġ78": 8362,
      "training": 8363,
      "ĠTherefore": 8364,
      "Ġaccomp": 8365,
      "ĠJo": 8366,
      "Ġoutcome": 8367,
      "venue": 8368,
      "Context": 8369,
      "ledge": 8370,
      "Ġfilm": 8371,
      "enses": 8372,
      "linked": 8373,
      "nnltk": 8374,
      "rawler": 8375,
      "Ġperforming": 8376,
      "ousing": 8377,
      "ĠAdditionally": 8378,
      "('/',": 8379,
      "Ġequals": 8380,
      "ĠPyPDF": 8381,
      "stackoverflow": 8382,
      "Ġcalculation": 8383,
      "Ġpriority": 8384,
      "Ġpipe": 8385,
      "ncorpus": 8386,
      "Ġmanager": 8387,
      "ĠMessage": 8388,
      "ĠUnix": 8389,
      "blocks": 8390,
      "XXXX": 8391,
      "safe": 8392,
      "operator": 8393,
      "Pair": 8394,
      "[^\\": 8395,
      "Ġbounds": 8396,
      "weekday": 8397,
      "decrypt": 8398,
      "IGHT": 8399,
      "Library": 8400,
      "ĠGaussianNB": 8401,
      "ĠImported": 8402,
      "ĠGridSearchCV": 8403,
      "Ġpercentage": 8404,
      "Ġpseudocode": 8405,
      "\"].": 8406,
      "51": 8407,
      "?>": 8408,
      "CON": 8409,
      "FS": 8410,
      "IR": 8411,
      "Largest": 8412,
      "RES": 8413,
      "Utili": 8414,
      "]/": 8415,
      "eff": 8416,
      "frappe": 8417,
      "lint": 8418,
      "lan": 8419,
      "mysql": 8420,
      "nencoded": 8421,
      "schedule": 8422,
      "vider": 8423,
      "wra": 8424,
      "Ġcause": 8425,
      "Ġsit": 8426,
      "Ġfamily": 8427,
      "rab": 8428,
      "Ġrelation": 8429,
      "live": 8430,
      "Ġwidget": 8431,
      "animal": 8432,
      "isMessage": 8433,
      "diag": 8434,
      "Ġvideos": 8435,
      "oto": 8436,
      "ĠCor": 8437,
      "cope": 8438,
      "Ġconside": 8439,
      "tended": 8440,
      "ĠAutom": 8441,
      "ases": 8442,
      "Ġlocated": 8443,
      "pyder": 8444,
      "ĠLobbies": 8445,
      "Ġordered": 8446,
      "Ġmodeling": 8447,
      "concat": 8448,
      "Ġcurrency": 8449,
      "ĠHol": 8450,
      "Ġenabling": 8451,
      "Ġcompiled": 8452,
      "ĠGame": 8453,
      "pret": 8454,
      "boot": 8455,
      "Ġvariant": 8456,
      "ĠVideos": 8457,
      "Ġfilters": 8458,
      "Ġvers": 8459,
      "intercept": 8460,
      "nFLOGGER": 8461,
      "argmax": 8462,
      "atcher": 8463,
      "Ġregion": 8464,
      "Ġcompleted": 8465,
      "Ġzipf": 8466,
      "Ġmonthly": 8467,
      "tokenized": 8468,
      "000000": 8469,
      "Builder": 8470,
      "Ġlongitude": 8471,
      "catenate": 8472,
      "Ġtyp": 8473,
      "ĠAnaconda": 8474,
      "Ġcleaned": 8475,
      "Lemmatizer": 8476,
      "ĠResult": 8477,
      "Ġinterpreted": 8478,
      "Ġplug": 8479,
      "Ġmention": 8480,
      "ADD": 8481,
      "ĠGraph": 8482,
      "ĠBinaryTree": 8483,
      "ĠProcessing": 8484,
      "variables": 8485,
      "ĠTokenize": 8486,
      "decrypted": 8487,
      "lapsed": 8488,
      "ĠTypeError": 8489,
      "NetLemmatizer": 8490,
      "Ġblank": 8491,
      "(\"*\",": 8492,
      "Ġpermissions": 8493,
      "Ġidea": 8494,
      "chronous": 8495,
      "isMessageNeeded": 8496,
      "Ġconsidered": 8497,
      "'):": 8498,
      ")```": 8499,
      "38": 8500,
      "43": 8501,
      "94": 8502,
      "Ab": 8503,
      "Calculator": 8504,
      "Dist": 8505,
      "PA": 8506,
      "PR": 8507,
      "Second": 8508,
      "Take": 8509,
      "Un": 8510,
      "Unique": 8511,
      "[][": 8512,
      "_(": 8513,
      "_,": 8514,
      "aml": 8515,
      "brown": 8516,
      "cam": 8517,
      "just": 8518,
      "kely": 8519,
      "lug": 8520,
      "nco": 8521,
      "nav": 8522,
      "punct": 8523,
      "plus": 8524,
      "syn": 8525,
      "}-\\": 8526,
      "Ġaff": 8527,
      "rer": 8528,
      "enu": 8529,
      "encoding": 8530,
      "Ġforest": 8531,
      "Ġfruits": 8532,
      "Ġintent": 8533,
      "Ġinventory": 8534,
      "urred": 8535,
      "allow": 8536,
      "ride": 8537,
      "ancial": 8538,
      "Ġ[{\"": 8539,
      "Ġgtts": 8540,
      "npred": 8541,
      "iso": 8542,
      "('{}": 8543,
      "Ġannot": 8544,
      "ilar": 8545,
      "Ġcore": 8546,
      "ĠSO": 8547,
      "ĠST": 8548,
      "ĠAccess": 8549,
      "nscores": 8550,
      "Ġdeck": 8551,
      "opulation": 8552,
      "cities": 8553,
      "ĠNow": 8554,
      "Ġselector": 8555,
      "=='": 8556,
      "ĠLoc": 8557,
      "ĠLength": 8558,
      "ĠEnd": 8559,
      "ĠEdit": 8560,
      "Ġ%}\\": 8561,
      "Ġpoin": 8562,
      "entication": 8563,
      "Ġens": 8564,
      "Ġencoun": 8565,
      "='')": 8566,
      "ĠWith": 8567,
      "ĠWait": 8568,
      "perclip": 8569,
      "codes": 8570,
      "phrase": 8571,
      "Ġ:-": 8572,
      "Ġ},": 8573,
      "Classify": 8574,
      "Ġ_,": 8575,
      "ĠAdam": 8576,
      "()`.": 8577,
      "dirname": 8578,
      "ĠQApplication": 8579,
      "ometry": 8580,
      "Ġteach": 8581,
      "objective": 8582,
      "Ġblockchain": 8583,
      "nmerge": 8584,
      "imgur": 8585,
      "Ġconcatenated": 8586,
      "ĠImporting": 8587,
      "Ġtransformation": 8588,
      "distances": 8589,
      "Ġlookup": 8590,
      "Ġpascal": 8591,
      "capitalized": 8592,
      "ĠSoftware": 8593,
      "1234567890": 8594,
      "tributeError": 8595,
      "Ġproduces": 8596,
      "ffee": 8597,
      "humidity": 8598,
      "\"]:\\": 8599,
      "'d": 8600,
      "){": 8601,
      "/\"\\": 8602,
      ">\")\\": 8603,
      "Dog": 8604,
      "Ele": 8605,
      "Fi": 8606,
      "London": 8607,
      "Ptr": 8608,
      "Root": 8609,
      "Sim": 8610,
      "Stemmer": 8611,
      "ags": 8612,
      "bucket": 8613,
      "dom": 8614,
      "future": 8615,
      "gz": 8616,
      "han": 8617,
      "hobbies": 8618,
      "iss": 8619,
      "nQ": 8620,
      "nlargest": 8621,
      "noptimizer": 8622,
      "vocab": 8623,
      "|\\": 8624,
      "repo": 8625,
      "Ġthing": 8626,
      "rad": 8627,
      "Ġtxt": 8628,
      "uming": 8629,
      "rote": 8630,
      "Ġmis": 8631,
      "Ġess": 8632,
      "Ġderiv": 8633,
      "Ġ120": 8634,
      "nperson": 8635,
      "heapp": 8636,
      "Ġconcurrent": 8637,
      "ĠSee": 8638,
      "Ġimporting": 8639,
      "Ġuuid": 8640,
      "Ġtaken": 8641,
      "Ġ`[": 8642,
      "###": 8643,
      "cesses": 8644,
      "Ġpotential": 8645,
      "Ġsubtree": 8646,
      "Ġcomparing": 8647,
      "Ġcomputation": 8648,
      "Ġprecision": 8649,
      "Ġkv": 8650,
      "rameter": 8651,
      "Ġunits": 8652,
      "onday": 8653,
      "errors": 8654,
      "ĠlongestWord": 8655,
      "Ġopenpyxl": 8656,
      "Ġurlparse": 8657,
      "Ġheading": 8658,
      "dfFile": 8659,
      "Ġability": 8660,
      "nnow": 8661,
      "nFinally": 8662,
      "321": 8663,
      "ĠStudio": 8664,
      "Optim": 8665,
      "Dev": 8666,
      "ĠQueue": 8667,
      "Ġfiltering": 8668,
      "Ġbackup": 8669,
      "fficiency": 8670,
      "background": 8671,
      "evenshtein": 8672,
      "Ġterrible": 8673,
      "ficial": 8674,
      "Ġbuttons": 8675,
      "Ġconcatenation": 8676,
      "pipfile": 8677,
      "meric": 8678,
      "ĠChange": 8679,
      "Ġwhitespaces": 8680,
      "predicted": 8681,
      "Ġhostname": 8682,
      "Ġprincipal": 8683,
      "equation": 8684,
      "Ġauthenticate": 8685,
      "Ġneighbour": 8686,
      "Ġreached": 8687,
      "ĠAuth": 8688,
      "Ġscheduled": 8689,
      "Ġtraceback": 8690,
      "ĠISBN": 8691,
      "Ġparentheses": 8692,
      "ĠDeveloping": 8693,
      "AudioEndpoint": 8694,
      "(':')[": 8695,
      "UpperCase": 8696,
      "Complete": 8697,
      "anuary": 8698,
      "ĠVideosSearch": 8699,
      "AudioEndpointVolume": 8700,
      "!\");\\": 8701,
      "93": 8702,
      "Bar": 8703,
      "Cur": 8704,
      "Fore": 8705,
      "Schema": 8706,
      "XML": 8707,
      "_)\\": 8708,
      "`:": 8709,
      "cap": 8710,
      "itertools": 8711,
      "ju": 8712,
      "ktop": 8713,
      "lush": 8714,
      "nall": 8715,
      "nCon": 8716,
      "nEx": 8717,
      "nUsing": 8718,
      "nstd": 8719,
      "qtt": 8720,
      "windows": 8721,
      "Ġ):\\": 8722,
      "reddit": 8723,
      "origin": 8724,
      "erm": 8725,
      "Ġcart": 8726,
      "Ġclock": 8727,
      "Ġcumulative": 8728,
      "devices": 8729,
      "Ġpunctuations": 8730,
      "Ġreset": 8731,
      "Ġretri": 8732,
      "sec": 8733,
      "sect": 8734,
      "ndo": 8735,
      "Ġmusic": 8736,
      "Ġear": 8737,
      "Ġ'!": 8738,
      "ĠPorter": 8739,
      "lope": 8740,
      "chart": 8741,
      "Ġguessed": 8742,
      "ividual": 8743,
      "Ġprotein": 8744,
      "nframe": 8745,
      "Ġ{{": 8746,
      "ĠTic": 8747,
      "ĠCipher": 8748,
      "quares": 8749,
      "ĠIM": 8750,
      "ĠSu": 8751,
      "ĠFraction": 8752,
      "tolist": 8753,
      "ĠAVG": 8754,
      "Ġdetailed": 8755,
      "Ġparallel": 8756,
      "Ġsummation": 8757,
      "Ġchoo": 8758,
      "ĠMock": 8759,
      "Ġchecksum": 8760,
      "licked": 8761,
      "Ġquality": 8762,
      "ĠĠĠĠĠĠĠĠĠĠĠĠĠĠĠĠĠĠĠĠĠĠ": 8763,
      "Instance": 8764,
      "Ġfail": 8765,
      "joy": 8766,
      "bool": 8767,
      "colors": 8768,
      "Ġlikely": 8769,
      "Ġexecuting": 8770,
      "ĠVera": 8771,
      "faces": 8772,
      "127": 8773,
      "Ġoverall": 8774,
      "Ġrobo": 8775,
      "Ġformatting": 8776,
      "Ġexport": 8777,
      "nmylist": 8778,
      "Ġhandwritten": 8779,
      "izon": 8780,
      "argin": 8781,
      "Ġphrases": 8782,
      "Ġtrip": 8783,
      "uffman": 8784,
      "itecture": 8785,
      "nsubstring": 8786,
      "locations": 8787,
      "TextField": 8788,
      "017": 8789,
      "Ġsprite": 8790,
      "Ġsupported": 8791,
      "SECRET": 8792,
      "Height": 8793,
      "Alphab": 8794,
      "riends": 8795,
      "Ġhypo": 8796,
      "BeautifulSoup": 8797,
      "Ġlatitude": 8798,
      "Ġtrees": 8799,
      "nasyncio": 8800,
      "Ġcorrected": 8801,
      "ĠTokenizer": 8802,
      "Record": 8803,
      "backends": 8804,
      "Ġstarted": 8805,
      "symbol": 8806,
      "laborate": 8807,
      "Ġmillion": 8808,
      "neighbor": 8809,
      "Ġhelps": 8810,
      "Ġasynchronous": 8811,
      "%(": 8812,
      "+'": 8813,
      "+\\": 8814,
      "-=": 8815,
      "5000": 8816,
      "AAPL": 8817,
      "Group": 8818,
      "LU": 8819,
      "Mary": 8820,
      "Over": 8821,
      "RNA": 8822,
      "bi": 8823,
      "clock": 8824,
      "gers": 8825,
      "multiplication": 8826,
      "ned": 8827,
      "nadd": 8828,
      "nout": 8829,
      "nchar": 8830,
      "pan": 8831,
      "scan": 8832,
      "vo": 8833,
      "vowel": 8834,
      "ygon": 8835,
      "thers": 8836,
      "Ġcamera": 8837,
      "Ġfinally": 8838,
      "Ġpublisher": 8839,
      "Ġreality": 8840,
      "Ġrecipient": 8841,
      "artist": 8842,
      "tips": 8843,
      "Ġdash": 8844,
      "Ġdaily": 8845,
      "define": 8846,
      "Ġbreadth": 8847,
      "uest": 8848,
      "itors": 8849,
      "ĠisEmpty": 8850,
      "Ġart": 8851,
      "Ġanswers": 8852,
      "grape": 8853,
      "vest": 8854,
      "ĠCustomers": 8855,
      "asc": 8856,
      "pandas": 8857,
      "Ġmet": 8858,
      "Ġpaper": 8859,
      "()):\\": 8860,
      "sizes": 8861,
      "cious": 8862,
      "ĠinputString": 8863,
      "Ġbecomes": 8864,
      "ĠMAX": 8865,
      "activate": 8866,
      "ĠOver": 8867,
      "nearest": 8868,
      "angular": 8869,
      "upload": 8870,
      "Ġwebsocket": 8871,
      "=\"#": 8872,
      "ĠUTF": 8873,
      "([(": 8874,
      "Ġkth": 8875,
      "Ġmydb": 8876,
      "Install": 8877,
      "ighted": 8878,
      "Ġhashed": 8879,
      "Ġabc": 8880,
      "Profile": 8881,
      "Ġworker": 8882,
      "Ġsplits": 8883,
      "Ġnumerator": 8884,
      "Ġinteract": 8885,
      "Ġspread": 8886,
      "OUT": 8887,
      "Ġsmtp": 8888,
      "spect": 8889,
      "SVC": 8890,
      "Ġefficiently": 8891,
      "chool": 8892,
      "private": 8893,
      "ĠWebsite": 8894,
      "Ġagainst": 8895,
      "----------------------------------------------------------------": 8896,
      "Ġparagraphs": 8897,
      "parts": 8898,
      "nllist": 8899,
      "Ġiterable": 8900,
      "Ġrecommendations": 8901,
      "Widgets": 8902,
      "Ġpermute": 8903,
      "Spider": 8904,
      "ĠAssign": 8905,
      "controller": 8906,
      "LTK": 8907,
      "Ġcommunication": 8908,
      "Ġcompatible": 8909,
      "ĠTermin": 8910,
      "ĠBankAccount": 8911,
      "Ġencountered": 8912,
      ")\"\\": 8913,
      "61": 8914,
      "72": 8915,
      "Circle": 8916,
      "KE": 8917,
      "MI": 8918,
      "Play": 8919,
      "UID": 8920,
      "YTH": 8921,
      "bill": 8922,
      "blog": 8923,
      "hive": 8924,
      "ilo": 8925,
      "nested": 8926,
      "xFF": 8927,
      "rew": 8928,
      "Ġcrop": 8929,
      "Ġsheet": 8930,
      "Ġflex": 8931,
      "rance": 8932,
      "Ġincoming": 8933,
      "Ġpublished": 8934,
      "attribute": 8935,
      "Ġreward": 8936,
      "Ġreversing": 8937,
      "Ġreinstalling": 8938,
      "rou": 8939,
      "ropped": 8940,
      "meters": 8941,
      "ndi": 8942,
      "ndis": 8943,
      "ndone": 8944,
      "Ġwait": 8945,
      "Ġmoney": 8946,
      "ortun": 8947,
      "Ġbash": 8948,
      "lazy": 8949,
      "stringLength": 8950,
      "Ġlon": 8951,
      "Ġrather": 8952,
      "Ġprogress": 8953,
      "Ġproblems": 8954,
      "gradient": 8955,
      "ved": 8956,
      "nfunc": 8957,
      "cker": 8958,
      "iles": 8959,
      "Ġmaster": 8960,
      "Ġmajor": 8961,
      "ĠIris": 8962,
      "ĠSU": 8963,
      "ĠSUM": 8964,
      "Ġ---------": 8965,
      "asy": 8966,
      "ĠAmazon": 8967,
      "ĠApache": 8968,
      "ĠLevenshtein": 8969,
      "imit": 8970,
      "nformat": 8971,
      "archive": 8972,
      "Ġneg": 8973,
      "Ġ72": 8974,
      "Ġwebhook": 8975,
      "=\"/": 8976,
      "sumption": 8977,
      "ship": 8978,
      "Ġknn": 8979,
      "findAll": 8980,
      "subtract": 8981,
      "Ġvariety": 8982,
      "running": 8983,
      "Ġrob": 8984,
      "Ġdescent": 8985,
      "desc": 8986,
      "Ġtfidf": 8987,
      "rawberry": 8988,
      "Ġodds": 8989,
      "groups": 8990,
      "ART": 8991,
      "ĠreversedString": 8992,
      "ABASE": 8993,
      "ĠlinearSearch": 8994,
      "agent": 8995,
      "corr": 8996,
      "Ġtranslator": 8997,
      "Ġnumeral": 8998,
      "Ġstocks": 8999,
      "Finder": 9000,
      "784": 9001,
      "789": 9002,
      "rincipal": 9003,
      "Ġgraphical": 9004,
      "Neutral": 9005,
      "ĠAnaly": 9006,
      "Ġjobs": 9007,
      "medy": 9008,
      "Ġhistory": 9009,
      "noriginal": 9010,
      "Ġiterations": 9011,
      "Ġconfusion": 9012,
      "Ġactually": 9013,
      "Ġreplacing": 9014,
      "Ġreleased": 9015,
      "Indx": 9016,
      "Factorial": 9017,
      "ĠSimulating": 9018,
      "ĠVisual": 9019,
      "ĠLibrary": 9020,
      "Linked": 9021,
      "terator": 9022,
      "ĠmacOS": 9023,
      "gethostname": 9024,
      "Ġextends": 9025,
      "gregate": 9026,
      "Ġconcepts": 9027,
      "ollars": 9028,
      "Ġcentroids": 9029,
      "allenge": 9030,
      "ĠPorterStemmer": 9031,
      "izontal": 9032,
      "YTHON": 9033,
      ")}": 9034,
      "*\\": 9035,
      "96": 9036,
      ">\",": 9037,
      "?]\\": 9038,
      "Character": 9039,
      "Driver": 9040,
      "Home": 9041,
      "Jack": 9042,
      "Ma": 9043,
      "Most": 9044,
      "Pattern": 9045,
      "Queue": 9046,
      "Rate": 9047,
      "].\\": 9048,
      "cart": 9049,
      "fies": 9050,
      "ied": 9051,
      "ipping": 9052,
      "mnist": 9053,
      "nst": 9054,
      "nex": 9055,
      "nList": 9056,
      "nNumber": 9057,
      "nMy": 9058,
      "nPlease": 9059,
      "nodd": 9060,
      "nheaders": 9061,
      "publisher": 9062,
      "Ġ;": 9063,
      "rename": 9064,
      "reset": 9065,
      "onom": 9066,
      "Ġcut": 9067,
      "Ġcare": 9068,
      "Ġclip": 9069,
      "Ġsb": 9070,
      "Ġsorry": 9071,
      "Ġsaving": 9072,
      "Ġfoot": 9073,
      "Ġinfin": 9074,
      "Ġnb": 9075,
      "lime": 9076,
      "lies": 9077,
      "arithm": 9078,
      "Ġopp": 9079,
      "Ġwelcome": 9080,
      "Ġeuclidean": 9081,
      "Ġdat": 9082,
      "loating": 9083,
      "Ġbins": 9084,
      "Ġ\";\\": 9085,
      "uly": 9086,
      "Ġ[?": 9087,
      "npath": 9088,
      "Ġyet": 9089,
      "Ġyoutube": 9090,
      "illa": 9091,
      "__()\\": 9092,
      "endpoint": 9093,
      "resample": 9094,
      "(\"<": 9095,
      "Ġ50000": 9096,
      "nsample": 9097,
      "tac": 9098,
      "edu": 9099,
      "Ġ`%": 9100,
      "Ġlex": 9101,
      "vise": 9102,
      "Ġ89": 9103,
      "curity": 9104,
      "=====\\": 9105,
      "Ġsca": 9106,
      "curate": 9107,
      "Ġdisable": 9108,
      "duction": 9109,
      "nail": 9110,
      "captcha": 9111,
      "divide": 9112,
      "ROR": 9113,
      "episode": 9114,
      "Ġ${": 9115,
      "paragraph": 9116,
      "ridge": 9117,
      "Ġworkbook": 9118,
      "ĠPyglet": 9119,
      "Ġgames": 9120,
      "Ġscissors": 9121,
      "Ġbuilds": 9122,
      "factory": 9123,
      "Ġfetched": 9124,
      "Ġcausing": 9125,
      "Three": 9126,
      "Ġdevelopers": 9127,
      "UTF": 9128,
      "Ġhttpd": 9129,
      "Fahrenheit": 9130,
      "555": 9131,
      "Ġdocs": 9132,
      "Ġcontacts": 9133,
      "divisors": 9134,
      "ĠWordNetLemmatizer": 9135,
      "DecisionTreeClassifier": 9136,
      "Ġfinish": 9137,
      "SIZE": 9138,
      "Login": 9139,
      "Ġconstraint": 9140,
      "screenshot": 9141,
      "ĠMaxPooling": 9142,
      "INTER": 9143,
      "Ġvehicle": 9144,
      "mongodb": 9145,
      "Ġalternative": 9146,
      "trees": 9147,
      "Ġcmupdf": 9148,
      "Ġcreation": 9149,
      "imaginary": 9150,
      "Ġclosing": 9151,
      "Ġticket": 9152,
      "ĠJupyter": 9153,
      "tiguous": 9154,
      "Ġpointers": 9155,
      "ortunately": 9156,
      "Ġrobust": 9157,
      "62": 9158,
      "83": 9159,
      "91": 9160,
      "Action": 9161,
      "CE": 9162,
      "CG": 9163,
      "Cat": 9164,
      "Import": 9165,
      "James": 9166,
      "MT": 9167,
      "Oper": 9168,
      "Pi": 9169,
      "SA": 9170,
      "TER": 9171,
      "]**": 9172,
      "]],\\": 9173,
      "`)": 9174,
      "bow": 9175,
      "fg": 9176,
      "jec": 9177,
      "java": 9178,
      "jority": 9179,
      "mic": 9180,
      "network": 9181,
      "slow": 9182,
      "volution": 9183,
      "ws": 9184,
      "what": 9185,
      "Ġlayout": 9186,
      "Ġaug": 9187,
      "Ġfar": 9188,
      "Ġinclusive": 9189,
      "season": 9190,
      "metric": 9191,
      "geometry": 9192,
      "Ġmn": 9193,
      "Ġms": 9194,
      "ĠPrime": 9195,
      "ĠPCA": 9196,
      "ĠPascal": 9197,
      "utdown": 9198,
      "Ġbrand": 9199,
      "Ġbuffer": 9200,
      "nical": 9201,
      "Ġlisting": 9202,
      "Ġ2000": 9203,
      "machine": 9204,
      "ĠTEST": 9205,
      "ĠCloud": 9206,
      "ĠCurrent": 9207,
      "individual": 9208,
      "(\"{": 9209,
      "WriteLine": 9210,
      "appid": 9211,
      "Ġunders": 9212,
      "ĠNot": 9213,
      "ĠNLTK": 9214,
      "pypi": 9215,
      "align": 9216,
      "ĠRob": 9217,
      "ĠEl": 9218,
      "ĠMultiply": 9219,
      "activity": 9220,
      "timeout": 9221,
      "ĠOR": 9222,
      "Ġshown": 9223,
      "prop": 9224,
      "Ġprepare": 9225,
      "ĠGender": 9226,
      "roots": 9227,
      "Ġquote": 9228,
      "ixed": 9229,
      "Ġmyzip": 9230,
      "Ġoutside": 9231,
      "phi": 9232,
      "venshtein": 9233,
      "Ġtempor": 9234,
      "Ġpyramid": 9235,
      "nAnother": 9236,
      "Ġvertex": 9237,
      "Ġdatabases": 9238,
      "ĠSeparate": 9239,
      "Ġtrig": 9240,
      "Exp": 9241,
      "Ġcompletion": 9242,
      "ĠFormat": 9243,
      "spring": 9244,
      "Ġtransactions": 9245,
      "ĠAddress": 9246,
      "Ġportfolio": 9247,
      "events": 9248,
      "initialize": 9249,
      "Ġsends": 9250,
      "Ġrepeating": 9251,
      "ĠChoose": 9252,
      "ceived": 9253,
      "Ġsubtracting": 9254,
      "callback": 9255,
      "UPDATE": 9256,
      "NNER": 9257,
      "Ġinvo": 9258,
      "Ġdownloaded": 9259,
      "ĠZero": 9260,
      "Ġpady": 9261,
      "sqlalchemy": 9262,
      "yyyy": 9263,
      "Ġreceives": 9264,
      "ĠThanks": 9265,
      "Female": 9266,
      "ĠEnter": 9267,
      "exceptions": 9268,
      "Ġsoundfile": 9269,
      "Ġarchive": 9270,
      "ĠVisu": 9271,
      "basicConfig": 9272,
      "virtualenv": 9273,
      "(?:": 9274,
      ".\",\\": 9275,
      "74": 9276,
      ":**": 9277,
      "Alex": 9278,
      "COUNT": 9279,
      "David": 9280,
      "Gener": 9281,
      "Harry": 9282,
      "Listener": 9283,
      "Master": 9284,
      "Mongo": 9285,
      "Menu": 9286,
      "Tom": 9287,
      "bile": 9288,
      "cuda": 9289,
      "ehicle": 9290,
      "false": 9291,
      "mime": 9292,
      "nen": 9293,
      "nset": 9294,
      "nhttp": 9295,
      "oard": 9296,
      "pick": 9297,
      "sted": 9298,
      "ymb": 9299,
      "Ð°": 9300,
      "Ġë": 9301,
      "Ġí": 9302,
      "Ġ?\\": 9303,
      "intent": 9304,
      "Ġcal": 9305,
      "Ġsig": 9306,
      "dec": 9307,
      "Ġfavorite": 9308,
      "Ġinverted": 9309,
      "media": 9310,
      "Ġouter": 9311,
      "Ġtodo": 9312,
      "ĠPI": 9313,
      "ĠPath": 9314,
      "ĠPredi": 9315,
      "nia": 9316,
      "('',": 9317,
      "nfortunately": 9318,
      "ĠTODO": 9319,
      "ational": 9320,
      "coin": 9321,
      "Ġcomedy": 9322,
[...]
